{"type": "combinatorial", "prefixes": ["", " ", " (", "\n", "\n- ", "\n\n", " '", "\n## ", " \"", " [", " `", " $", " -", " {'", " \\\"", " {\"", "\n  - ", " ['", " /", "\n ", "\n\n ", " [[", " = ", " [\"", " - ", " + ", " ('", " \"-", " {", " '/", " `/", " .", " {\\\"", "   ", " <", " '#", " **", " [{\"", " #", " | ", " * ", " [(", "\n   - ", " \"#", " .../", " / ", " [{'", " [-", " +", " & ", " '-", "\n      \"", " '<", " `{", " %", " \n\n", " \"/", " (-", " '.", "  ", " - '", " ' ", " ⌊", "\n    - ", " '%", " > ", "\n\n- ", " '   ", " (`", " @", " '.', '.', '", "\n## /", " \".\", \".\", \"", " {{", " # ", " '**", " \n", "\t", " [('", " '@", " `[", "\n\n```", " (\"", " = '", " [['", " \"<", "  | ", " \"+", "    ", " ...]`.\n- ", "        | ", " '_", " '(", " “", " …/", "\n- `", " __", "     | ", "\n     ", " < ", "\n    \"", "\n   - `", " = [", " - \"", " = [[", " = {'", " ±", " : ", "       | ", "  ' ", " -> ", " `(", " `.", "    | ", "\n{\n  \"", " [\\\"", " `.../", " * (", " \"{", " – ", " ‘", " '  ", " <= ", " `\"", " ($", " ** ", " [{_", " '-' ", " \".", " \"[", " \"?", " = (", "      | ", " '[", " \".\", \".\", ", "\n        \"", " [\n    {\n      \"", " == ", " \")\n\n", "  |\n| ", " '^", " '{", "   ' ", "\n   - **", "\n\n**", "   | ", " `'", " {_", " '', '", " \"(", " `*` ", " // ", " '+", " × ", " [{\\\"", " {\"$", "\n```\n", " \"{}\"): ", " `<", " '{\"", "\n     ```", "\n- \"", " _", "\n  \"", " >", " / (", " '+' ", " \",\"): ", " '*' ", " '!' ", " % ", " \"@", " \"): ", " \")\n", "   \")\n\n", " ',' (", " {'$", " - $", " '--", "\n/", " \n  - ", "\n     - ", "\n   ", " \"%", " ..., ", " [[\"", " ${", "\n    [", " '__", " = -", " \\", " += ", " *.", " , ", " ... '", " \"♠\"): ", " '♠'.\n- ", " + ... + ", " `\"/", " ['.', '", " `{ \"", " }` ", " |\n| ", "\n    },\n    // ", " {\n      \"", " €", "  \")\n\n", " '?", " \"\", \"", " \".\"], [\"", " { ", " '/'.\n- ", "\n\n| ", " '#' (", " **[", " `-` ", "\n[", " \".\", \".\", \".\", ", " [ [", " ± ", " \"{\\\"", " '.'], ['", " '.', '", " &", " ([", " <![", "\n  ]\n}\n```\n\n", " % (", " (_), ", "\n    },\n    \"", "\n  - `", " []}, ", " --", " >= ", " \", ", " '+'.\n- ", " \"/\"): ", " '#' ", " (-), "], "suffixes": ["", ".", "_", ",", ":", ";", "):", "-", "\"):", "(", "'", "=\"", "',", "\",", "?", "'.", ")", "=", "\")", "/", "\":", "':", ").", "],", ".,", "`", "://", "]", "`,", "=[", "),", "\"", "'?", "').", "\".", "`.", "%", "].", "@", "])", "=[\"", "},", "\\\":", "={\"", "=\"[", "\"],", "...):", "\"])", "\\\",", "^", "=[[", "]\")", "\"},", ".'", "]?", "=\"{'", "=[{\"", "]])", "()", "}", "]\",", "]]", "!'", "!", ">", "']", "+", "...", "]],", ")?", "\").", "=-", "%,", ".)", ".\")", "'],", "})", "'},", "]].", "=\"/", "\"})", "%).", "\\", ".).", "}.", "°", "&", "%.", ".\"", "')", "'].", "**", ".\",", "=\"['", "!\")", "'}", "=\"[[", "|", "-%", "</", "\"?", "*", "}])", "'),", "><", "}\")", "]]\")", "=[[\"", "/@", "=\"{\\\"", ",-", "=\"[{'", "}\",", "\"}])", "']\")", "`).", "'}.", "'}\")", "='", "'}\",", "\\\"},", "=\"[{\\\"", "[", "]]?", "’", "?'", "></", "}],", "']\",", "\\\\", "=\"[\\\"", "},{", ":/", "\"]])", "/\"):", ".'?", "!\",", "⌋", ":%", "=\"-", "**:", "?\"):", "']?", "=\"%", ",\"", ")]", ")].", "}:{", "~", "=\"<", "}?", "`:", ".',", "\"]},", ">'", "!\"", "\"}],", "=\"#", "\";", "%?", "}]\",", "}]\")", ".\"):", "],[", "}`.", "=[-", ".'.", "}},", "\"]})", "}].", "/'.", ">\")", "]]\",", "\\\":\\\"", "/%", "\\\"]\")", "=\"{", "{", "?\")", ".</", "\\\"}\")", "\\\",\\\"", "**'", "#", "?\"", "->", "..", ")'", "=\".", "__", "](", "=\"+", ",...", "!\"):", "\\\"]\",", "'}]\",", ")\",", "\"}})", "/\")", "::", ":\\", "<", "\"]", "?\",", "}}.", "'}?", "!'.", "'}].", ",\\", "/'", "==", "_'", ">'.", "!'?", ".?", "=\"[['", "\"}},", "('", "%)", ",'.','.',", ":**", "\\\"}]\",", "]},", "**.", ")],", "\\\"}\",", "}})", "=\\\"", "=\"\",", ">.", "}}", ">\",", ")`", ">',", "}[|{", "}]},", "”", "=\"\")", "&#", ")\")", "!',", "==\"):", "\\\"}]\")", ".\\", "\"}]})", "\\\"", "\"}", "]),", "(\"", "\"]],", "]]])", "/\",", "'}]\")", "']}.", "\":\"", "\"]}])", "}]", "`)", "=\"[-", "]}.", "}={", "\"`", ",'.','.','.',", "'`.", "]`", "']}\")", "']]\")", "]{", ":\\\\", "]})", "/...):", ")`.", "=\"[(", "]}\")", "]`.", "']},", "\"}}])", "?'.", "}}])", "=*", ",*", "++", "=\"(", "}}\")", ",)", "=[\"/", "}-{", "'\")", "=\",\")", "，", "}.\",", "....", ">,", "'-'", "//", "}\".", "_\")", "(\\\"", "'>", "\"}]},", "_...):", "/{", ",_", "']].", "=\"\\\\", "=='.", "=[[[", ";\"):", ";'.", "}?{", "]_[", "—", "://'", "---", "=\",", "=\"-\")", "’.", "-_", "]]].", "=[],", "]]]\")", "'}}.", "}'.", "^-", "/.", "}!", "()`", "]`,", "\"]):", "/'?", "!</", "}{", ")]\")", "'}},", "]:[", "**),", "\"}]}])", ")_(", "}'", "}}\",", "):\\", "]]]?", "]]]", ">:<", "\"'", "']]", "():\\", "]'", "','", "}.'", "\"><", "`):", "';", "=[])", ">\"", "}]}])", ",...):", "=\"*.", "}:", "\")'.", ")]\",", "]\".", ")]?", "...'", "]**", "/#", "')]", "__',", "\"].", ".\"])", "\"}}},", ">'?", "%].", ",'.'],", "'}]", "=\"{}\")", ");", "\":{\"", "\":[{\"", "},{\"", "}]})", "_{", "}/", ":'", "\\\")\"):", "/(", "}[&{", "=\"[]\")", "-'", "'\\", ":::", ".\"},", "=\"@", "\"]}},", "=\"[('", "/./", ",\\\"", ">...</", "^(-", "--"], "fold_case": true, "punct_to_next": false, "fold_han": false, "split_camel": true, "alphabet": ["\n", " ", "!", "\"", "#", "$", "%", "&", "'", "(", ")", "*", "+", ",", "-", ".", "/", "0", "1", "2", "3", "4", "5", "6", "7", "8", "9", ":", ";", "<", "=", ">", "?", "@", "[", "\\", "]", "^", "_", "`", "a", "b", "c", "d", "e", "f", "g", "h", "i", "j", "k", "l", "m", "n", "o", "p", "q", "r", "s", "t", "u", "v", "w", "x", "y", "z", "{", "|", "}", "²", "á", "ç", "è", "é", "í", "ó", "ö", "ł", "π", "♠", "♣", "♥", "♦", "こ", "た", "ち", "に", "は", "ん", "世", "久", "你", "好", "水", "海", "瓶", "界"], "merges": [["i", "n"], ["t", "h"], ["e", "r"], ["th", "e"], ["o", "n"], ["s", "t"], ["a", "l"], ["a", "t"], ["o", "r"], ["a", "n"], ["r", "e"], ["in", "g"], ["d", "e"], ["t", "i"], ["t", "o"], ["o", "f"], ["e", "n"], ["a", "r"], ["e", "s"], ["u", "l"], ["c", "h"], ["st", "r"], ["u", "s"], ["f", "or"], ["ti", "on"], ["str", "ing"], ["e", "t"], ["t", "e"], ["c", "o"], ["an", "d"], ["r", "o"], ["l", "i"], ["u", "m"], ["ul", "t"], ["l", "e"], ["s", "e"], ["o", "p"], ["f", "a"], ["at", "e"], ["i", "c"], ["i", "s"], ["a", "m"], ["op", "tion"], ["de", "fa"], ["defa", "ult"], ["option", "al"], ["us", "er"], ["l", "s"], ["i", "on"], ["n", "um"], ["c", "al"], ["e", "d"], ["i", "d"], ["e", "c"], ["u", "r"], ["i", "t"], ["f", "i"], ["t", "r"], ["b", "er"], ["a", "p"], ["g", "e"], ["u", "n"], ["num", "ber"], ["en", "t"], ["li", "st"], ["l", "o"], ["at", "ion"], ["v", "e"], ["g", "er"], ["in", "te"], ["inte", "ger"], ["a", "s"], ["a", "c"], ["0", "0"], ["re", "s"], ["c", "on"], ["w", "i"], ["a", "y"], ["t", "er"], ["m", "e"], ["q", "u"], ["v", "al"], ["a", "ge"], ["wi", "th"], ["w", "h"], ["ro", "m"], ["s", "p"], ["o", "u"], ["f", "rom"], ["n", "e"], ["n", "am"], ["g", "et"], ["d", "i"], ["p", "ro"], ["for", "m"], ["a", "i"], ["co", "m"], ["or", "d"], ["to", "o"], ["v", "er"], ["p", "o"], ["b", "e"], ["cal", "ls"], ["too", "ls"], ["c", "e"], ["i", "e"], ["t", "s"], ["f", "et"], ["fet", "ch"], ["a", "d"], ["val", "u"], ["k", "e"], ["i", "f"], ["s", "i"], ["nam", "e"], ["a", "re"], ["ar", "r"], ["ap", "i"], ["b", "o"], ["d", "at"], ["b", "y"], ["p", "l"], ["arr", "ay"], ["i", "de"], ["m", "a"], ["sp", "ec"], ["a", "se"], ["d", "ic"], ["2", "0"], ["p", "er"], ["e", "x"], ["a", "b"], ["ar", "ch"], ["i", "v"], ["se", "arch"], ["c", "ul"], ["f", "in"], ["re", "tr"], ["retr", "ie"], ["cal", "cul"], ["co", "de"], ["i", "m"], ["y", "ou"], ["iv", "en"], ["g", "iven"], ["u", "t"], ["w", "e"], ["dat", "a"], ["m", "ent"], ["m", "o"], ["t", "y"], ["co", "un"], ["1", "0"], ["us", "ing"], ["h", "o"], ["c", "t"], ["at", "es"], ["s", "o"], ["c", "an"], ["i", "p"], ["o", "b"], ["l", "y"], ["h", "e"], ["ar", "y"], ["u", "p"], ["ke", "y"], ["ec", "t"], ["default", "s"], ["n", "o"], ["h", "t"], ["i", "g"], ["a", "g"], ["re", "t"], ["ur", "n"], ["d", "o"], ["it", "y"], ["fin", "d"], ["valu", "e"], ["ret", "urn"], ["w", "ord"], ["dic", "tion"], ["v", "ide"], ["d", "ate"], ["p", "r"], ["e", "ar"], ["c", "ur"], ["p", "le"], ["re", "n"], ["1", "2"], ["on", "e"], ["ti", "me"], ["retrie", "ve"], ["g", "en"], ["ob", "j"], ["ic", "e"], ["spec", "i"], ["u", "de"], ["c", "l"], ["p", "ar"], ["wh", "i"], ["an", "g"], ["ec", "k"], ["al", "l"], ["calcul", "ate"], ["ch", "eck"], ["en", "d"], ["form", "at"], ["x", "t"], ["te", "d"], ["lo", "c"], ["whi", "ch"], ["p", "e"], ["a", "in"], ["b", "ase"], ["p", "ut"], ["fi", "ed"], ["y", "ear"], ["s", "u"], ["l", "d"], ["fetch", "es"], ["ne", "w"], ["con", "ver"], ["i", "r"], ["con", "t"], ["i", "es"], ["o", "m"], ["obj", "ect"], ["e", "m"], ["er", "s"], ["ou", "t"], ["form", "ation"], ["t", "ai"], ["speci", "fied"], ["f", "o"], ["in", "formation"], ["d", "u"], ["l", "l"], ["de", "tai"], ["th", "er"], ["fi", "l"], ["e", "st"], ["number", "s"], ["m", "in"], ["diction", "ary"], ["gen", "er"], ["cur", "ren"], ["s", "or"], ["y", "y"], ["po", "in"], ["p", "res"], ["a", "ch"], ["res", "ult"], ["m", "at"], ["c", "k"], ["ai", "l"], ["p", "age"], ["r", "ap"], ["s", "on"], ["es", "s"], ["th", "at"], ["valu", "es"], ["wh", "at"], ["ate", "d"], ["pro", "du"], ["base", "d"], ["ch", "ar"], ["c", "tion"], ["an", "t"], ["ad", "d"], ["s", "h"], ["s", "y"], ["it", "s"], ["te", "xt"], ["z", "e"], ["h", "i"], ["s", "c"], ["fi", "r"], ["ty", "pe"], ["ne", "ed"], ["t", "w"], ["an", "ce"], ["fir", "st"], ["20", "2"], ["c", "y"], ["e", "ach"], ["in", "put"], ["loc", "ation"], ["lo", "w"], ["coun", "tr"], ["pro", "vide"], ["detai", "ls"], ["in", "ter"], ["if", "ic"], ["l", "ang"], ["s", "et"], ["st", "ar"], ["s", "er"], ["te", "m"], ["or", "y"], ["fil", "ter"], ["an", "ge"], ["u", "e"], ["d", "s"], ["fi", "le"], ["ig", "ht"], ["p", "re"], ["res", "s"], ["result", "s"], ["1", "5"], ["r", "ate"], ["in", "cl"], ["co", "l"], ["e", "le"], ["he", "l"], ["o", "k"], ["qu", "er"], ["return", "s"], ["c", "re"], ["en", "g"], ["countr", "y"], ["4", "5"], ["coun", "t"], ["r", "a"], ["al", "so"], ["spec", "ific"], ["ma", "x"], ["1", "00"], ["3", "0"], ["l", "in"], ["tw", "o"], ["c", "i"], ["re", "pres"], ["p", "on"], ["un", "i"], ["quer", "y"], ["an", "y"], ["n", "ti"], ["lang", "u"], ["gener", "ate"], ["ab", "le"], ["as", "s"], ["f", "un"], ["c", "ate"], ["add", "ress"], ["p", "a"], ["re", "c"], ["ord", "er"], ["poin", "t"], ["star", "t"], ["cont", "ain"], ["im", "um"], ["l", "a"], ["12", "3"], ["m", "i"], ["val", "id"], ["rap", "id"], ["produ", "ct"], ["se", "con"], ["a", "ve"], ["p", "h"], ["conver", "t"], ["m", "on"], ["ul", "d"], ["cal", "l"], ["ide", "nti"], ["l", "on"], ["m", "y"], ["langu", "age"], ["p", "or"], ["r", "am"], ["re", "qu"], ["er", "e"], ["a", "u"], ["ac", "ter"], ["r", "and"], ["tr", "ac"], ["o", "d"], ["sy", "m"], ["it", "ude"], ["ic", "al"], ["res", "pon"], ["g", "ro"], ["pr", "ice"], ["st", "o"], ["d", "ing"], ["sym", "bo"], ["ele", "ment"], ["com", "p"], ["cate", "g"], ["ent", "s"], ["am", "ple"], ["en", "ce"], ["2", "5"], ["st", "or"], ["mat", "ch"], ["s", "um"], ["u", "re"], ["f", "f"], ["e", "v"], ["integer", "s"], ["an", "s"], ["d", "ay"], ["su", "b"], ["in", "de"], ["fun", "ction"], ["retrie", "v"], ["ur", "l"], ["calcul", "ates"], ["incl", "ude"], ["th", "is"], ["o", "un"], ["n", "one"], ["l", "at"], ["pl", "ay"], ["char", "acter"], ["v", "ie"], ["ac", "e"], ["qu", "e"], ["ti", "t"], ["s", "ion"], ["sto", "ck"], ["d", "is"], ["in", "to"], ["b", "et"], ["a", "v"], ["re", "g"], ["i", "tem"], ["pa", "th"], ["w", "or"], ["em", "ail"], ["j", "son"], ["ai", "r"], ["t", "en"], ["ar", "ti"], ["symbo", "l"], ["year", "s"], ["r", "i"], ["repres", "ent"], ["0", "1"], ["ma", "in"], ["li", "m"], ["ab", "out"], ["al", "y"], ["wh", "ere"], ["i", "a"], ["curren", "cy"], ["uni", "que"], ["string", "s"], ["rand", "om"], ["secon", "d"], ["an", "aly"], ["p", "s"], ["7", "8"], ["ti", "ve"], ["im", "age"], ["l", "eng"], ["leng", "th"], ["b", "u"], ["provide", "d"], ["si", "ze"], ["co", "ord"], ["u", "st"], ["am", "oun"], ["we", "en"], ["identi", "fi"], ["bet", "ween"], ["5", "0"], ["m", "et"], ["amoun", "t"], ["h", "ave"], ["u", "al"], ["c", "es"], ["st", "at"], ["coord", "in"], ["c", "ity"], ["new", "s"], ["j", "o"], ["identifi", "er"], ["m", "ar"], ["inde", "x"], ["un", "d"], ["ar", "d"], ["g", "o"], ["to", "p"], ["categ", "ory"], ["v", "ice"], ["am", "e"], ["par", "am"], ["1", "1"], ["l", "low"], ["max", "imum"], ["o", "g"], ["r", "ange"], ["lim", "it"], ["b", "in"], ["word", "s"], ["lo", "g"], ["tit", "le"], ["ap", "p"], ["s", "ho"], ["cre", "ate"], ["vide", "o"], ["00", "00"], ["o", "ur"], ["l", "es"], ["i", "ti"], ["m", "m"], ["l", "u"], ["c", "r"], ["t", "al"], ["retriev", "es"], ["h", "as"], ["o", "ther"], ["w", "ant"], ["9", "0"], ["respon", "se"], ["t", "u"], ["an", "n"], ["param", "et"], ["hel", "p"], ["to", "k"], ["fo", "llow"], ["l", "ate"], ["st", "ance"], ["ing", "s"], ["inter", "est"], ["tr", "i"], ["k", "et"], ["contain", "ing"], ["no", "t"], ["ve", "l"], ["b", "i"], ["g", "n"], ["c", "ent"], ["col", "or"], ["ser", "vice"], ["po", "st"], ["00", "0"], ["key", "s"], ["re", "d"], ["the", "ir"], ["mo", "de"], ["represent", "ing"], ["dic", "t"], ["f", "e"], ["i", "ve"], ["ation", "s"], ["ex", "ample"], ["tion", "s"], ["tr", "ue"], ["i", "z"], ["ex", "trac"], ["ht", "t"], ["curren", "t"], ["us", "e"], ["t", "ar"], ["c", "or"], ["nam", "es"], ["l", "et"], ["1", "6"], ["w", "w"], ["lon", "g"], ["of", "f"], ["re", "ct"], ["le", "an"], ["m", "ul"], ["de", "n"], ["tar", "get"], ["o", "t"], ["ac", "k"], ["user", "name"], ["bo", "ok"], ["sor", "t"], ["do", "main"], ["list", "s"], ["at", "ing"], ["w", "n"], ["ge", "st"], ["mon", "th"], ["wh", "o"], ["v", "o"], ["ic", "s"], ["g", "re"], ["c", "ar"], ["com", "m"], ["h", "n"], ["to", "tal"], ["poin", "ts"], ["fa", "ct"], ["jo", "hn"], ["check", "s"], ["d", "d"], ["bo", "o"], ["tr", "ans"], ["ann", "ual"], ["o", "ver"], ["late", "st"], ["i", "st"], ["p", "ass"], ["e", "ld"], ["po", "si"], ["t", "a"], ["yy", "yy"], ["reg", "ion"], ["in", "ve"], ["202", "3"], ["por", "t"], ["inve", "st"], ["p", "ag"], ["sc", "or"], ["1", "9"], ["he", "ight"], ["fi", "eld"], ["i", "al"], ["45", "6"], ["4", "0"], ["te", "st"], ["boo", "lean"], ["p", "y"], ["di", "stance"], ["av", "ail"], ["coordin", "ates"], ["ter", "m"], ["pl", "ace"], ["character", "s"], ["si", "gn"], ["gro", "up"], ["wor", "ld"], ["key", "word"], ["ti", "es"], ["le", "vel"], ["c", "ts"], ["hel", "lo"], ["s", "ing"], ["pl", "es"], ["202", "2"], ["are", "a"], ["ar", "ies"], ["m", "ed"], ["in", "iti"], ["li", "c"], ["f", "r"], ["lo", "ok"], ["st", "and"], ["rec", "ip"], ["requ", "est"], ["element", "s"], ["te", "am"], ["a", "ver"], ["li", "ty"], ["co", "uld"], ["a", "st"], ["wi", "ll"], ["or", "ig"], ["htt", "ps"], ["long", "itude"], ["lat", "itude"], ["orig", "in"], ["z", "ip"], ["le", "d"], ["lin", "e"], ["invest", "ment"], ["k", "s"], ["ig", "h"], ["inter", "val"], ["i", "o"], ["initi", "al"], ["sor", "ted"], ["ple", "ase"], ["per", "form"], ["vie", "w"], ["let", "ter"], ["hi", "stor"], ["p", "air"], ["we", "b"], ["la", "st"], ["se", "par"], ["p", "op"], ["item", "s"], ["re", "mo"], ["ti", "v"], ["histor", "ical"], ["diction", "aries"], ["conver", "ts"], ["find", "s"], ["li", "g"], ["de", "c"], ["qu", "ir"], ["ho", "w"], ["end", "ing"], ["ev", "ent"], ["in", "quir"], ["ap", "ple"], ["mar", "ket"], ["dis", "count"], ["mul", "ti"], ["de", "sc"], ["ra", "di"], ["re", "e"], ["lo", "an"], ["per", "cent"], ["1", "3"], ["in", "e"], ["us", "d"], ["mo", "vie"], ["with", "in"], ["paramet", "ers"], ["we", "ight"], ["comp", "any"], ["s", "es"], ["w", "er"], ["c", "ase"], ["fact", "or"], ["in", "ation"], ["pass", "word"], ["rap", "h"], ["pop", "ul"], ["0", "5"], ["f", "t"], ["de", "d"], ["2", "00"], ["per", "i"], ["s", "ch"], ["ab", "i"], ["se", "qu"], ["c", "ess"], ["e", "qu"], ["avail", "able"], ["n", "on"], ["is", "o"], ["mat", "ri"], ["matri", "x"], ["extrac", "t"], ["at", "tri"], ["percent", "age"], ["pro", "j"], ["follow", "ing"], ["di", "tion"], [" ", " "], ["ap", "e"], ["p", "ay"], ["as", "on"], ["an", "other"], ["u", "te"], ["1", "8"], ["us", "ed"], ["l", "ar"], ["ment", "s"], ["c", "ust"], ["on", "ly"], ["q", "r"], ["cust", "om"], ["pr", "of"], ["m", "or"], ["ac", "t"], ["origin", "al"], ["ic", "es"], ["c", "at"], ["ti", "ck"], ["ac", "es"], ["s", "qu"], ["si", "st"], ["bin", "ary"], ["im", "al"], ["aver", "age"], ["re", "ad"], ["pro", "per"], ["at", "or"], ["peri", "od"], ["produ", "cts"], ["separ", "ated"], ["u", "b"], ["se", "ason"], ["en", "cy"], ["end", "point"], ["ch", "ange"], ["gener", "ates"], ["1", "4"], ["e", "ther"], ["ang", "le"], ["po", "s"], ["k", "i"], ["d", "y"], ["arti", "st"], ["b", "an"], ["d", "er"], ["mode", "l"], ["at", "ive"], ["or", "k"], ["p", "at"], ["do", "e"], ["s", "is"], ["ti", "c"], ["ne", "xt"], ["re", "l"], ["abi", "lity"], ["f", "lo"], ["so", "ur"], ["do", "c"], ["so", "me"], ["k", "ing"], ["y", "ork"], ["am", "p"], ["2", "4"], ["ag", "ram"], ["em", "p"], ["st", "ate"], ["b", "le"], ["b", "ut"], ["v", "ar"], ["inquir", "er"], ["so", "ci"], ["m", "an"], ["di", "ff"], ["cl", "es"], ["s", "ample"], ["di", "v"], ["n", "et"], ["tok", "en"], ["di", "rect"], ["t", "ain"], ["s", "al"], ["en", "ti"], ["ic", "k"], ["ect", "or"], ["au", "to"], ["ur", "ation"], ["s", "up"], ["in", "st"], ["t", "able"], ["3", "2"], ["ch", "an"], ["a", "f"], ["sequ", "ence"], ["num", "s"], ["li", "sh"], ["day", "s"], ["arti", "cles"], ["up", "le"], ["dec", "imal"], ["m", "al"], ["analy", "sis"], ["7", "5"], ["min", "imum"], ["v", "ector"], ["de", "s"], ["ph", "one"], ["6", "0"], ["start", "ing"], ["un", "it"], ["squ", "are"], ["met", "ers"], ["f", "l"], ["cont", "ent"], ["m", "ess"], ["ter", "min"], ["ver", "se"], ["fi", "x"], ["option", "s"], ["b", "it"], ["b", "r"], ["ec", "ts"], ["lo", "cal"], ["g", "ame"], ["chan", "ne"], ["t", "uple"], ["ho", "ur"], ["gro", "w"], ["j", "ob"], ["str", "u"], ["ac", "tiv"], ["as", "sist"], ["y", "p"], ["if", "y"], ["rec", "ord"], ["per", "son"], ["st", "a"], ["ul", "e"], ["rel", "ated"], ["c", "le"], ["e", "k"], ["s", "ent"], ["v", "i"], ["lig", "ht"], ["e", "l"], ["ti", "p"], ["8", "5"], ["stat", "us"], ["tick", "er"], ["de", "termin"], ["ter", "n"], ["out", "put"], ["li", "ke"], ["pag", "ination"], ["ro", "w"], ["cr", "yp"], ["tu", "be"], ["son", "g"], ["b", "ack"], ["s", "s"], ["ion", "s"], ["sp", "or"], ["ma", "ke"], ["sho", "uld"], ["bi", "ll"], ["in", "fo"], ["8", "0"], ["i", "an"], ["to", "ur"], ["g", "b"], ["g", "es"], ["f", "al"], ["6", "5"], ["9", "9"], ["c", "u"], ["au", "th"], ["m", "l"], ["m", "ap"], ["off", "set"], ["2", "2"], ["ge", "o"], ["a", "z"], ["g", "ram"], ["he", "ad"], ["pl", "et"], ["u", "ding"], ["wh", "ether"], ["g", "r"], ["sp", "li"], ["no", "w"], ["grow", "th"], ["contain", "s"], ["t", "ag"], ["fal", "se"], ["ho", "te"], ["ad", "dition"], ["tu", "ples"], ["ww", "w"], ["sch", "ed"], ["detai", "led"], ["ap", "l"], ["com", "ma"], ["m", "es"], ["y", "our"], ["proj", "ect"], ["radi", "us"], ["a", "apl"], ["f", "er"], ["i", "ze"], ["play", "er"], ["in", "c"], ["com", "plet"], ["lo", "ad"], ["pair", "s"], ["1", "7"], ["w", "id"], ["sour", "ce"], ["popul", "ation"], ["go", "og"], ["in", "t"], ["analy", "ze"], ["ty", "p"], ["i", "ld"], ["n", "ing"], ["b", "l"], ["bu", "te"], ["f", "y"], ["l", "b"], ["io", "us"], ["we", "ek"], ["di", "g"], ["re", "view"], ["doc", "um"], ["attri", "bute"], ["ex", "p"], ["in", "dic"], ["b", "all"], ["at", "ure"], ["3", "3"], ["o", "c"], ["me", "et"], ["do", "wn"], ["prof", "i"], ["c", "lo"], ["an", "a"], ["sing", "le"], ["wid", "th"], ["cor", "respon"], ["auth", "or"], ["se", "d"], ["return", "ed"], ["um", "n"], ["incl", "uding"], ["ac", "ce"], ["dat", "ab"], ["code", "s"], ["ev", "ents"], ["ro", "om"], ["multi", "ple"], ["in", "d"], ["m", "er"], ["col", "umn"], ["assist", "ant"], ["s", "ity"], ["cryp", "to"], ["di", "vide"], ["datab", "ase"], ["f", "requ"], ["cl", "ass"], ["stor", "e"], ["channe", "l"], ["n", "or"], ["m", "us"], ["vo", "l"], ["w", "o"], ["m", "en"], ["th", "an"], ["hote", "l"], ["diff", "er"], ["complet", "e"], ["5", "00"], ["b", "re"], ["ag", "es"], ["al", "ly"], ["mess", "age"], ["or", "ies"], ["b", "at"], ["b", "on"], ["b", "us"], ["af", "ter"], ["7", "0"], ["de", "fin"], ["posi", "tive"], ["stand", "ard"], ["an", "ti"], ["correspon", "ding"], ["s", "v"], ["st", "ed"], ["al", "ph"], ["re", "verse"], ["9", "8"], ["requ", "i"], ["fetch", "ed"], ["stru", "ct"], ["month", "ly"], ["c", "ap"], ["c", "a"], ["coordin", "ate"], ["ti", "k"], ["su", "g"], ["py", "th"], ["ne", "sted"], ["c", "er"], ["po", "wer"], ["78", "9"], ["scor", "es"], ["scor", "e"], ["inst", "agram"], ["pr", "ices"], ["custom", "er"], ["m", "s"], ["time", "st"], ["123", "45"], ["lu", "tion"], ["w", "ay"], ["as", "c"], ["5", "5"], ["pat", "tern"], ["pyth", "on"], ["p", "al"], ["ti", "mes"], ["co", "me"], ["tour", "nam"], ["n", "t"], ["ser", "ies"], ["match", "es"], ["la", "be"], ["qu", "anti"], ["direct", "ory"], ["t", "ren"], ["con", "fi"], ["paramet", "er"], ["78", "90"], ["g", "h"], ["eng", "lish"], ["i", "ent"], ["co", "in"], ["bo", "x"], ["er", "r"], ["pre", "fix"], ["wor", "k"], ["en", "ch"], ["pro", "b"], ["sent", "ence"], ["d", "uration"], ["activ", "ity"], ["ist", "ics"], ["goog", "le"], ["wo", "uld"], ["bo", "ard"], ["in", "ess"], ["k", "now"], ["ban", "ana"], ["ne", "g"], ["pro", "cess"], ["ver", "sion"], ["conver", "ted"], ["me", "an"], ["record", "s"], ["s", "a"], ["loc", "k"], ["s", "ame"], ["remo", "ve"], ["mo", "v"], ["8", "8"], ["profi", "le"], ["2", "3"], ["com", "mon"], ["i", "ma"], ["st", "em"], ["h", "ex"], ["-", "-"], ["pl", "an"], ["6", "6"], ["sho", "w"], ["b", "ir"], ["123", "456"], ["pl", "aces"], ["typ", "es"], ["r", "ip"], ["al", "low"], ["col", "le"], ["ex", "change"], ["secon", "ds"], ["too", "lb"], ["sug", "gest"], ["toolb", "ench"], ["d", "ra"], ["h", "igh"], ["obj", "ects"], ["a", "ther"], ["spli", "t"], ["sup", "por"], ["pr", "i"], ["sy", "stem"], ["c", "li"], ["f", "ul"], ["the", "se"], ["ac", "tion"], ["al", "og"], ["low", "er"], ["re", "le"], ["f", "ram"], ["valid", "ate"], ["p", "i"], ["si", "te"], ["vi", "ation"], ["mus", "ic"], ["ac", "tive"], ["e", "i"], ["re", "di"], ["ta", "x"], ["ing", "redi"], ["proper", "ty"], ["t", "ing"], ["9", "5"], ["ve", "loc"], ["a", "k"], ["den", "sity"], ["ho", "me"], ["ab", "c"], ["d", "ai"], ["m", "ust"], ["veloc", "ity"], ["video", "s"], ["div", "is"], ["it", "er"], ["timest", "amp"], ["dai", "ly"], ["re", "sta"], ["resta", "ur"], ["re", "place"], ["cur", "sor"], ["g", "u"], ["retriev", "ed"], ["sh", "ape"], ["e", "p"], ["at", "er"], ["it", "al"], ["com", "put"], ["recip", "e"], ["ph", "r"], ["3", "5"], ["ima", "ges"], ["st", "re"], ["h", "ic"], ["look", "ing"], ["ei", "ther"], ["sp", "o"], ["stat", "istics"], ["neg", "ative"], ["t", "as"], ["who", "se"], ["we", "ather"], ["b", "al"], ["bus", "iness"], ["we", "igh"], ["e", "u"], ["ot", "es"], ["pal", "ind"], ["ve", "hic"], ["char", "t"], ["prob", "ability"], ["key", "words"], ["w", "as"], ["op", "er"], [" ", "'"], ["fil", "es"], ["te", "ll"], ["do", "g"], ["3", "7"], ["in", "come"], ["at", "a"], ["su", "ch"], ["s", "k"], ["up", "per"], ["c", "sv"], ["e", "ff"], ["4", "4"], ["coun", "ts"], ["lin", "k"], ["t", "es"], ["de", "viation"], ["m", "is"], ["p", "ub"], ["tem", "per"], ["me", "m"], ["pay", "ment"], ["bu", "ild"], ["ac", "ci"], ["bon", "acci"], ["co", "st"], ["user", "s"], ["ut", "es"], ["z", "o"], ["fi", "bonacci"], ["review", "s"], ["y", "e"], ["g", "am"], ["er", "ic"], ["frequ", "ency"], ["ro", "le"], ["fram", "e"], ["r", "ates"], ["u", "res"], ["th", "ree"], ["mo", "d"], ["mor", "e"], ["qu", "otes"], ["desc", "ending"], ["le", "ag"], ["ten", "sor"], ["qu", "o"], ["pre", "diction"], ["comput", "es"], ["determin", "e"], ["n", "d"], ["te", "ch"], ["w", "in"], ["posi", "tion"], ["ther", "e"], ["6", "4"], ["er", "o"], ["up", "date"], ["med", "ia"], ["cont", "in"], ["en", "ted"], ["nam", "ed"], ["remo", "v"], ["de", "si"], ["gen", "re"], ["po", "ly"], ["quanti", "ty"], ["ro", "l"], ["desi", "red"], ["z", "one"], ["j", "an"], ["vehic", "le"], ["en", "code"], ["un", "its"], ["re", "port"], ["par", "t"], ["emp", "ty"], ["pl", "y"], ["lin", "es"], ["e", "ur"], ["meet", "ing"], ["0", "3"], ["ex", "pres"], ["defin", "i"], ["100", "0"], ["represent", "ation"], ["st", "ory"], ["repres", "ented"], ["og", "raph"], ["oc", "curren"], ["bir", "th"], ["l", "st"], ["l", "er"], ["al", "s"], ["di", "alog"], ["r", "an"], ["n", "er"], ["ro", "t"], ["b", "as"], ["d", "f"], ["f", "ic"], ["mo", "st"], ["b", "lock"], ["st", "ude"], ["com", "ments"], ["for", "ec"], ["ge", "ograph"], ["pl", "ate"], ["post", "s"], ["par", "se"], ["d", "up"], ["an", "ts"], ["car", "ds"], ["d", "b"], ["filter", "s"], ["si", "ble"], ["or", "s"], ["crypto", "currency"], ["as", "soci"], ["al", "ity"], ["quo", "te"], ["b", "rand"], ["p", "en"], ["202", "1"], ["dra", "w"], ["dat", "as"], ["ac", "count"], ["ex", "ist"], ["ang", "es"], ["comp", "are"], ["or", "g"], ["um", "e"], ["id", "er"], ["forec", "ast"], ["datas", "et"], ["n", "ap"], ["0", "7"], ["lon", "gest"], ["phr", "ase"], ["le", "ar"], ["v", "in"], ["g", "y"], ["se", "le"], ["cent", "er"], ["location", "s"], ["dig", "its"], ["x", "y"], ["leag", "ue"], ["u", "id"], ["has", "h"], ["al", "b"], ["sh", "or"], ["countr", "ies"], ["g", "ra"], ["iz", "ation"], ["perform", "s"], ["is", "h"], ["sp", "e"], ["suppor", "ted"], ["en", "ces"], ["m", "u"], ["as", "ure"], ["ch", "ain"], ["trac", "k"], ["g", "raph"], ["recip", "es"], ["b", "ro"], ["fin", "al"], ["n", "a"], ["speci", "al"], ["ele", "c"], ["divide", "nd"], ["ar", "g"], ["di", "men"], ["comm", "un"], ["dimen", "sion"], ["iti", "es"], ["m", "any"], ["ro", "me"], ["alb", "um"], ["rec", "ent"], ["associ", "ated"], ["9", "2"], ["con", "st"], ["ht", "ml"], ["0", "2"], ["am", "az"], ["the", "m"], ["bo", "dy"], ["n", "g"], ["temper", "ature"], ["elec", "tr"], ["str", "i"], ["suggest", "ions"], ["t", "v"], ["soci", "al"], ["ad", "ing"], ["so", "lu"], ["7", "4"], ["me", "th"], ["met", "r"], ["6", "3"], ["st", "ates"], ["pos", "sible"], ["sub", "string"], ["dat", "es"], ["r", "ight"], ["sched", "ule"], ["r", "ating"], ["ce", "ll"], ["f", "ut"], ["p", "are"], ["al", "ice"], ["alph", "a"], ["interval", "s"], ["2", "8"], ["requi", "red"], ["var", "i"], ["tournam", "ent"], ["20", "20"], ["qu", "ar"], ["de", "gre"], ["h", "um"], ["char", "ge"], ["p", "u"], ["the", "n"], ["allow", "ed"], ["iz", "ed"], ["be", "ing"], ["flo", "at"], ["emp", "lo"], ["spor", "ts"], ["spec", "ify"], ["con", "s"], ["ver", "y"], ["op", "en"], ["categ", "ories"], ["web", "site"], ["mov", "ies"], ["vo", "ice"], ["sal", "es"], ["var", "ious"], ["di", "tions"], ["ex", "ten"], ["amaz", "on"], ["t", "t"], ["colle", "ction"], ["equ", "al"], ["r", "un"], ["t", "c"], ["res", "our"], ["eff", "ic"], ["p", "t"], ["ti", "al"], ["with", "out"], ["con", "ditions"], ["i", "th"], ["extrac", "ts"], ["docum", "ent"], ["t", "xt"], ["cre", "ates"], ["b", "ar"], ["ro", "ver"], ["quar", "ter"], ["cr", "iter"], ["p", "g"], ["as", "h"], ["est", "im"], ["pre", "dict"], ["p", "ack"], ["li", "ve"], ["tr", "a"], ["ci", "al"], ["format", "ted"], ["confi", "g"], ["s", "of"], ["fi", "es"], ["den", "ce"], ["t", "or"], ["m", "ass"], ["pro", "gram"], ["ur", "al"], ["defini", "tion"], ["c", "ard"], ["ingredi", "ents"], ["ob", "tain"], ["sh", "a"], ["meth", "od"], ["com", "bin"], ["3", "1"], ["p", "ur"], ["lear", "ning"], ["book", "s"], ["gre", "ater"], ["mem", "ber"], ["c", "ir"], ["med", "i"], ["'", ","], ["fin", "an"], ["stat", "ic"], ["op", "ti"], ["me", "asure"], ["min", "utes"], ["s", "ess"], ["ul", "ar"], ["hi", "story"], ["g", "on"], ["vol", "ume"], ["lic", "ation"], ["palind", "rome"], ["on", "g"], ["tw", "it"], ["down", "load"], ["search", "es"], ["c", "ies"], ["le", "st"], ["local", "e"], ["t", "we"], ["ho", "ld"], ["r", "gb"], ["analy", "z"], ["re", "al"], ["3", "6"], ["hour", "s"], ["le", "ft"], ["spor", "t"], ["acce", "ler"], ["se", "cur"], ["lar", "gest"], ["v", "en"], ["4", "32"], ["7", "7"], ["addition", "ally"], ["mo", "ve"], ["sp", "ace"], ["song", "s"], ["fil", "en"], ["ci", "ties"], ["desc", "rip"], ["build", "ing"], ["tas", "k"], ["exten", "sion"], ["en", "tr"], ["si", "mul"], ["re", "comm"], ["pl", "at"], ["ht", "ag"], ["comp", "ute"], ["has", "htag"], ["dy", "nam"], ["fut", "ure"], ["format", "s"], ["su", "re"], ["en", "er"], ["25", "5"], ["poly", "gon"], ["ad", "ata"], ["met", "adata"], ["3", "4"], ["b", "mi"], ["s", "end"], ["play", "ers"], ["look", "up"], ["j", "ust"], ["r", "is"], ["mer", "ge"], ["by", "te"], ["ful", "l"], ["criter", "ia"], ["st", "e"], ["top", "ic"], ["err", "or"], ["asc", "ending"], ["0", "8"], ["to", "day"], ["in", "voice"], ["fo", "ot"], ["d", "on"], ["tit", "les"], ["zip", "code"], ["net", "work"], ["gam", "es"], ["plat", "form"], ["play", "list"], ["98", "7"], ["sh", "ip"], ["proper", "ties"], ["r", "at"], ["po", "ten"], ["pres", "ent"], ["labe", "l"], ["l", "li"], ["se", "cu"], ["ho", "li"], ["electr", "ic"], ["et", "c"], ["wi", "se"], ["stand", "ings"], ["z", "ero"], ["pre", "fer"], ["s", "cal"], ["d", "a"], ["ro", "u"], ["bo", "und"], ["lu", "g"], ["cal", "i"], ["rect", "angle"], ["s", "lug"], ["finan", "cial"], ["con", "secu"], ["consecu", "tive"], ["o", "s"], ["fe", "ed"], ["fl", "ag"], ["as", "set"], ["bo", "t"], ["p", "et"], ["indic", "es"], ["si", "mi"], ["occurren", "ces"], ["simi", "lar"], ["provide", "s"], ["n", "ess"], ["stre", "am"], ["emplo", "ye"], ["sc", "i"], ["15", "0"], ["fa", "ce"], ["u", "uid"], ["pri", "me"], ["it", "es"], ["h", "and"], ["differ", "ent"], ["b", "tc"], ["acceler", "ation"], ["p", "m"], ["si", "ve"], ["bo", "b"], ["ener", "gy"], ["b", "a"], ["s", "ur"], ["0", "4"], ["con", "cat"], ["dis", "play"], ["c", "is"], ["f", "lat"], ["co", "ding"], ["no", "de"], ["sched", "ul"], ["o", "ld"], ["sy", "nap"], ["inde", "pen"], ["rou", "gh"], ["synap", "tic"], ["m", "p"], ["s", "enti"], ["ro", "und"], ["tren", "ding"], ["mu", "ch"], ["letter", "s"], ["ation", "al"], ["den", "t"], ["th", "rough"], ["no", "te"], ["ti", "fy"], ["field", "s"], ["in", "fl"], ["address", "es"], ["clo", "se"], ["cons", "ider"], ["senti", "ment"], ["i", "l"], ["symbo", "ls"], ["0", "9"], ["s", "l"], ["infl", "ation"], ["f", "ree"], ["htt", "p"], ["  ", "  "], ["4", "8"], ["tri", "angle"], ["sk", "ip"], ["re", "ction"], ["ch", "es"], ["sign", "ific"], ["6", "7890"], ["u", "k"], ["pi", "x"], ["ro", "ll"], ["am", "ples"], ["perform", "ance"], ["tag", "s"], ["mis", "sing"], ["c", "am"], ["de", "te"], ["bo", "th"], ["se", "ction"], ["as", "es"], ["2", "7"], ["qu", "est"], ["2", "1"], ["ran", "k"], ["docum", "ents"], ["holi", "days"], ["ne", "ar"], ["sess", "ion"], ["id", "s"], ["poten", "tial"], ["time", "zone"], ["ris", "k"], ["gen", "der"], ["factor", "ial"], ["expres", "sion"], ["spo", "tify"], ["se", "c"], ["bo", "un"], ["detai", "l"], ["bre", "ed"], ["lin", "ear"], ["v", "is"], ["pub", "lic"], ["m", "ut"], ["s", "m"], ["wh", "en"], ["ev", "en"], ["c", "m"], ["do", "es"], ["b", "acter"], ["cal", "end"], ["degre", "es"], ["\"", ","], ["3", "00"], ["fo", "o"], ["comm", "and"], ["differ", "ence"], ["app", "lication"], ["off", "ers"], ["calend", "ar"], ["et", "s"], ["stude", "nt"], ["10", "1"], ["ue", "l"], ["but", "es"], ["by", "tes"], ["follow", "s"], ["und", "er"], ["sp", "aces"], ["attri", "butes"], ["le", "ast"], ["ec", "tive"], ["di", "e"], ["trans", "l"], ["flat", "ten"], ["log", "y"], ["foot", "ball"], ["s", "en"], ["5", "6"], ["f", "uel"], ["filter", "ing"], ["concat", "en"], ["m", "ing"], ["on", "es"], ["ex", "t"], ["for", "e"], ["ag", "ain"], ["ser", "v"], [" ", "\""], ["gr", "id"], ["s", "he"], ["uni", "ted"], ["k", "es"], ["dic", "e"], ["u", "d"], ["descrip", "tion"], ["trans", "action"], ["g", "as"], ["commun", "ic"], ["2", "9"], ["de", "st"], ["um", "ent"], ["tr", "ave"], ["he", "y"], ["li", "cate"], ["head", "er"], ["filen", "ame"], ["min", "ute"], ["ans", "wer"], ["p", "ing"], ["re", "pe"], ["ip", "al"], ["restaur", "ant"], ["m", "ary"], ["de", "f"], ["se", "e"], ["medi", "um"], ["pr", "inc"], ["popul", "ar"], ["b", "its"], ["e", "th"], ["inte", "gr"], ["encode", "d"], ["princ", "ipal"], ["de", "vice"], ["is", "es"], ["tr", "ape"], ["trape", "zo"], ["trapezo", "id"], ["ser", "ver"], ["c", "ed"], ["repres", "ents"], ["6", "8"], ["d", "ar"], ["w", "ers"], [".", "',"], ["at", "t"], ["bl", "ue"], ["album", "s"], ["calcul", "ating"], ["speci", "fies"], ["air", "port"], ["ra", "ises"], ["avail", "ability"], ["ear", "n"], ["es", "e"], ["ac", "cess"], ["quarter", "ly"], ["ch", "o"], ["987", "65"], ["s", "mal"], ["fo", "od"], ["rover", "ts"], ["smal", "lest"], ["flo", "or"], ["p", "df"], ["1", "20"], ["ro", "ot"], ["sor", "ts"], ["nor", "mal"], ["ho", "st"], ["sc", "re"], ["hum", "an"], ["qu", "ality"], ["cer", "tain"], ["g", "in"], ["t", "g"], ["ad", "min"], ["loc", "ated"], ["9", "4"], ["f", "light"], ["determin", "es"], ["again", "st"], [".", "."], ["log", "ram"], ["ki", "logram"], ["p", "ho"], ["metr", "ics"], ["an", "agram"], ["y", "le"], ["lo", "s"], ["sa", "fe"], ["rele", "v"], ["di", "lution"], ["labe", "ls"], ["dup", "licate"], ["16", "6"], ["recip", "ient"], ["lon", "don"], ["solu", "tions"], ["d", "it"], ["h", "l"], ["s", "w"], ["x", "ml"], ["z", "z"], ["obtain", "ed"], ["n", "ight"], ["ul", "a"], ["reg", "ular"], ["restaur", "ants"], ["fo", "ld"], ["lower", "case"], ["a", "h"], ["tr", "ain"], ["res", "p"], ["sum", "mary"], ["dic", "ts"], ["mar", "k"], ["twit", "ter"], ["or", "ange"], ["d", "ou"], ["i", "val"], ["lin", "ks"], ["ad", "ded"], ["cli", "de"], ["const", "ant"], ["al", "th"], ["cu", "is"], ["str", "ic"], ["for", "est"], ["fo", "und"], ["div", "id"], ["i", "us"], ["eu", "clide"], ["euclide", "an"], ["form", "ula"], ["--", "--"], ["mi", "les"], ["k", "m"], ["en", "se"], ["ans", "wers"], ["cuis", "ine"], ["n", "ec"], ["he", "alth"], ["trans", "form"], ["group", "s"], ["m", "ic"], ["pro", "v"], ["sort", "ing"], ["com", "pon"], ["p", "tion"], ["on", "y"], ["jan", "e"], ["log", "in"], ["l", "ess"], ["o", "lution"], ["di", "stri"], ["pl", "ann"], ["pe", "ti"], ["the", "y"], ["mod", "ule"], ["pho", "to"], ["app", "ing"], ["struct", "ure"], ["h", "y"], ["ch", "i"], ["con", "dition"], ["ne", "are"], ["432", "1"], ["dest", "ination"], ["neare", "st"], ["com", "ing"], ["di", "rection"], ["g", "ive"], ["eng", "ine"], ["acce", "p"], ["birth", "date"], ["cir", "cle"], ["de", "vel"], ["sha", "res"], ["ver", "ti"], ["oun", "d"], ["st", "er"], ["p", "li"], ["u", "ary"], ["scre", "en"], ["tr", "ip"], ["pag", "es"], ["bal", "ance"], ["geograph", "ic"], ["m", "ay"], ["mo", "di"], ["ass", "ess"], ["7", "9"], ["weigh", "ts"], ["num", "er"], ["ex", "cl"], ["ut", "c"], ["100", "00"], ["sal", "ary"], ["eu", "ro"], ["mor", "tg"], ["contin", "ue"], ["effic", "i"], ["mortg", "age"], ["in", "ches"], ["tr", "ading"], ["rol", "ls"], ["ac", "tions"], ["path", "s"], ["ver", "ify"], ["date", "time"], ["job", "s"], ["upper", "case"], ["w", "r"], ["ar", "ound"], ["ex", "ec"], ["0000", "00"], ["ch", "un"], ["par", "ses"], ["sp", "an"], ["sub", "set"], ["ta", "ke"], ["h", "ere"], ["po", "li"], ["be", "fore"], ["shor", "t"], ["include", "s"], ["gre", "en"], ["signific", "ance"], ["f", "lu"], ["o", "se"], ["p", "ace"], ["8", "4"], ["us", "a"], ["at", "ures"], ["e", "ls"], ["n", "ia"], ["per", "mut"], ["for", "nia"], ["cali", "fornia"], ["arti", "cle"], ["k", "g"], ["op", "le"], ["qu", "ick"], ["gra", "de"], ["ven", "ue"], ["re", "fer"], ["pe", "ople"], ["ad", "just"], ["ab", "et"], ["remov", "es"], ["boun", "ding"], ["g", "lo"], ["por", "ts"], ["distri", "bu"], ["in", "divid"], ["filter", "ed"], ["clo", "ud"], ["individ", "ual"], ["org", "an"], ["kilogram", "s"], ["2", "000"], ["identi", "fy"], ["vector", "s"], ["in", "ce"], ["lo", "ve"], ["pack", "age"], ["5", "000"], ["employe", "e"], ["o", "l"], ["der", "iv"], ["p", "rom"], ["langu", "ages"], ["hex", "a"], ["fic", "ation"], ["trave", "l"], ["st", "ation"], ["m", "ac"], ["secur", "ity"], ["communic", "ates"], ["hexa", "decimal"], ["d", "na"], ["r", "y"], ["follow", "ers"], ["color", "s"], ["wi", "re"], ["inquir", "y"], ["h", "h"], ["mo", "tor"], ["pos", "it"], ["fold", "er"], ["get", "s"], ["room", "s"], ["resour", "ces"], ["g", "rate"], ["st", "yle"], ["inte", "grate"], ["spe", "ed"], ["de", "li"], ["par", "is"], ["3", "166"], ["f", "ren"], ["v", "ir"], ["fa", "ci"], ["auto", "complete"], ["program", "ming"], ["123", "4"], ["25", "0"], ["sho", "t"], ["g", "ht"], ["lo", "t"], ["stock", "s"], ["fren", "ch"], ["sci", "ence"], ["a", "a"], ["r", "u"], ["speci", "es"], ["h", "its"], ["com", "po"], ["ig", "nor"], ["pare", "n"], ["h", "or"], ["post", "al"], ["confi", "dence"], ["resp", "ective"], ["s", "q"], ["y", "es"], ["ch", "ick"], ["com", "ple"], ["chick", "en"], ["8", "9"], ["sele", "ct"], ["0", "6"], ["mode", "ls"], ["up", "coming"], ["pag", "in"], ["ki", "lo"], ["c", "ro"], ["coun", "ted"], ["ce", "ls"], ["mat", "er"], ["63", "9"], ["distribu", "tion"], ["e", "valu"], ["bacter", "ial"], ["mater", "ial"], ["or", "ity"], ["cels", "ius"], ["fo", "ur"], ["hi", "sto"], ["j", "pg"], ["p", "ng"], ["plann", "ing"], ["histo", "gram"], ["ul", "l"], ["ch", "ild"], ["sub", "j"], ["bro", "wn"], ["earn", "ings"], ["c", "lim"], ["tr", "im"], ["tem", "plate"], ["ma", "ch"], ["xy", "z"], ["i", "te"], ["ti", "le"], ["ange", "les"], ["trans", "late"], ["w", "ar"], ["z", "y"], ["co", "ver"], ["ap", "er"], ["rele", "ase"], ["12", "2"], ["ra", "ft"], ["c", "ted"], ["ch", "e"], ["map", "s"], ["c", "n"], ["4", "2"], ["z", "a"], ["request", "ed"], ["row", "s"], ["bat", "s"], ["recomm", "end"], ["pr", "ic"], ["app", "li"], ["tech", "no"], ["pix", "els"], ["ma", "j"], ["fo", "x"], ["match", "ing"], ["b", "b"], ["v", "ent"], ["ical", "ly"], ["bat", "ting"], ["un", "ds"], ["7", "6"], ["de", "p"], ["deriv", "ative"], ["co", "p"], ["pa", "st"], ["l", "ap"], ["au", "di"], ["ms", "ft"], ["i", "str"], ["curren", "cies"], ["pu", "ts"], ["we", "st"], ["12", "8"], ["med", "ian"], ["com", "peti"], ["cont", "ing"], ["th", "ir"], ["li", "ties"], ["le", "ap"], ["estim", "ate"], ["lig", "h"], ["column", "s"], ["conting", "ency"], ["t", "ab"], ["ital", "ian"], ["techno", "logy"], ["meet", "ings"], ["glo", "bal"], ["in", "j"], ["si", "de"], ["od", "d"], ["th", "res"], ["ver", "ses"], ["function", "s"], ["vari", "able"], ["clim", "ate"], ["x", "x"], ["par", "ti"], ["sub", "array"], ["dimension", "s"], ["ch", "at"], ["dec", "ay"], ["thres", "hold"], ["f", "c"], ["re", "ce"], ["web", "cam"], ["be", "st"], ["cont", "act"], ["k", "u"], ["re", "cur"], ["bill", "board"], ["sm", "all"], ["p", "iz"], ["n", "s"], ["gro", "und"], ["app", "ear"], ["dis", "counted"], ["region", "s"], ["jan", "uary"], ["u", "c"], ["en", "ded"], ["ex", "act"], ["call", "back"], ["optional", "ly"], ["ap", "ply"], ["ar", "t"], ["l", "and"], ["de", "sign"], ["near", "by"], ["k", "ed"], ["as", "ci"], ["interest", "ed"], ["scal", "e"], ["ag", "ent"], ["exist", "s"], ["b", "n"], ["n", "ts"], ["sa", "w"], ["co", "ok"], ["ro", "ute"], ["comm", "as"], ["r", "anges"], ["w", "at"], ["gen", "res"], ["link", "ed"], ["m", "apping"], ["am", "eric"], ["gener", "ated"], ["log", "s"], [" '", ".',"], ["ligh", "ts"], ["f", "low"], ["on", "s"], ["pl", "ac"], ["cr", "ic"], ["gu", "est"], ["f", "it"], ["s", "ki"], ["pre", "v"], ["y", "s"], ["wh", "ites"], ["sh", "are"], ["geograph", "ical"], ["h", "sl"], ["config", "uration"], ["mach", "ine"], ["thir", "d"], ["id", "d"], ["need", "s"], ["dup", "lic"], ["measure", "ment"], ["sh", "op"], ["asci", "i"], ["19", "2"], ["8", "00"], ["who", "is"], ["lic", "ense"], ["prev", "ious"], ["j", "um"], ["st", "op"], ["2", "6"], ["de", "ck"], ["comp", "an"], ["fr", "u"], ["s", "an"], ["s", "mi"], ["relev", "ant"], ["t", "ree"], ["ch", "err"], ["dynam", "ics"], ["compan", "ies"], ["cherr", "y"], ["w", "ere"], ["im", "p"], ["16", "8"], ["exp", "ir"], ["mic", "ro"], ["add", "s"], ["st", "ick"], ["play", "lists"], ["divis", "ion"], ["geo", "coding"], ["vol", "t"], ["3", "8"], ["s", "mar"], ["fin", "ance"], ["end", "points"], ["du", "e"], ["pur", "ch"], ["member", "s"], ["ne", "ur"], ["sc", "rip"], ["in", "ner"], ["ap", "ter"], ["mal", "e"], ["ith", "m"], ["webcam", "s"], ["c", "ach"], ["m", "ail"], ["devel", "op"], ["s", "at"], ["li", "e"], ["di", "abet"], ["cap", "ital"], ["diabet", "es"], ["c", "ast"], ["si", "des"], ["up", "dates"], ["volt", "age"], ["re", "places"], ["artist", "s"], ["b", "or"], ["ch", "apter"], ["s", "ine"], ["con", "struct"], ["s", "n"], ["s", "amples"], ["post", "code"], ["span", "ish"], ["prom", "o"], ["f", "li"], ["al", "e"], ["tr", "aver"], ["ap", "pro"], ["simul", "ate"], ["quest", "ion"], ["integr", "ation"], ["c", "lean"], ["struct", "ural"], ["l", "ng"], ["sour", "ces"], ["consider", "ing"], ["safe", "way"], ["piz", "za"], ["ll", "ar"], ["kilo", "meters"], ["al", "i"], ["team", "s"], ["divis", "or"], ["analyz", "ed"], ["dar", "win"], ["loc", "ate"], ["verti", "ces"], ["n", "y"], ["star", "ts"], ["la", "zy"], ["dig", "it"], ["compon", "ent"], ["go", "al"], ["requi", "re"], ["tr", "an"], ["ts", "la"], ["fr", "ance"], ["ingredi", "ent"], [".", "\","], ["on", "al"], ["ho", "use"], ["duplic", "ates"], ["o", "us"], ["equ", "ity"], ["bas", "ket"], ["im", "ony"], ["cric", "ket"], ["an", "um"], ["con", "trac"], ["we", "ll"], ["spli", "ts"], ["alph", "anum"], ["paren", "the"], ["de", "part"], ["ac", "c"], ["current", "ly"], ["123456", "789"], ["f", "ect"], ["ban", "k"], ["schedul", "es"], ["whites", "pace"], ["j", "ap"], ["s", "un"], ["wor", "king"], ["term", "s"], ["ether", "e"], ["123456", "7890"], ["conver", "s"], ["subj", "ect"], ["al", "imony"], ["ethere", "um"], ["for", "ex"], ["num", "py"], ["pr", "int"], ["resour", "ce"], ["li", "ked"], ["ed", "ia"], ["do", "w"], ["addition", "al"], ["bat", "ch"], ["trac", "ks"], ["stri", "ke"], ["ab", "les"], ["proj", "ects"], ["indic", "ating"], ["ex", "ce"], ["valid", "ates"], ["stor", "age"], ["multi", "ply"], ["mess", "ages"], ["rot", "ation"], ["di", "an"], ["per", "fect"], ["gra", "des"], ["smi", "th"], ["h", "z"], ["co", "py"], ["ev", "olution"], ["radi", "o"], ["c", "up"], ["th", "ing"], ["cy", "cle"], ["block", "chain"], ["in", "str"], ["fa", "v"], ["ate", "st"], ["mi", "lli"], ["gre", "atest"], ["v", "ia"], ["st", "ations"], ["res", "er"], ["check", "ed"], ["wi", "k"], ["basket", "ball"], ["alphanum", "eric"], ["iz", "es"], ["n", "inj"], ["numer", "ical"], ["um", "ents"], ["jum", "ps"], ["\"", ")"], ["conver", "sion"], ["add", "ing"], ["geo", "location"], ["zo", "om"], ["8", "6"], ["j", "i"], ["similar", "ity"], ["re", "plac"], ["token", "s"], ["dimension", "al"], ["parenthe", "ses"], ["a", "way"], ["l", "or"], ["202", "4"], ["identi", "fication"], ["indepen", "dent"], ["re", "q"], ["ser", "ial"], ["uni", "code"], ["g", "l"], ["so", "und"], ["sof", "t"], ["l", "ay"], ["in", "s"], ["an", "i"], ["comple", "x"], ["instr", "ument"], ["set", "s"], ["win", "dow"], ["sof", "tw"], ["ch", "anges"], ["con", "sum"], ["com", "ment"], ["ad", "a"], ["cul", "ar"], ["25", "6"], ["include", "d"], ["arg", "uments"], ["bar", "code"], ["l", "ls"], ["in", "du"], ["en", "s"], ["softw", "are"], ["g", "or"], ["whi", "le"], ["su", "c"], ["smar", "t"], ["b", "s"], ["in", "stance"], ["activ", "ities"], ["5", "2"], ["l", "am"], ["co", "sine"], ["fe", "ature"], ["domain", "s"], ["r", "ace"], ["in", "cre"], ["at", "s"], ["6", "7"], ["al", "gor"], ["spo", "use"], ["opti", "cal"], ["f", "ri"], ["ec", "ted"], ["ap", "sed"], ["foo", "ds"], ["stude", "nts"], ["f", "em"], ["p", "j"], ["p", "v"], ["al", "er"], ["le", "ading"], ["recur", "sive"], ["imp", "act"], ["in", "ser"], ["en", "sure"], ["ress", "ion"], ["tournam", "ents"], ["b", "ri"], ["ar", "m"], ["ic", "ult"], ["as", "y"], ["pre", "cis"], ["bin", "s"], ["18", "0"], ["tr", "ail"], ["face", "book"], ["precis", "ion"], ["a", "ger"], ["c", "d"], ["p", "ic"], ["te", "x"], ["con", "nec"], ["do", "ku"], ["base", "ball"], ["su", "doku"], ["ep", "iso"], ["in", "take"], ["sign", "ed"], ["jap", "an"], ["c", "amp"], ["re", "search"], ["posi", "tions"], ["effici", "ency"], ["pric", "ed"], ["n", "as"], ["de", "v"], ["le", "ad"], ["stre", "et"], ["wat", "ch"], ["indu", "str"], ["100", "0000"], ["or", "ie"], ["en", "vir"], ["cal", "orie"], ["11", "11"], ["tiv", "ity"], ["bas", "ic"], ["wik", "ip"], ["fri", "end"], ["envir", "on"], ["on", "om"], ["po", "ke"], ["bin", "ance"], ["pub", "lish"], ["effic", "ient"], ["poke", "mon"], ["the", "nti"], ["do", "llar"], ["au", "thenti"], ["tes", "la"], ["rot", "ated"], ["pagin", "ated"], ["l", "ing"], ["ab", "solu"], ["state", "ment"], ["cli", "ent"], ["absolu", "te"], ["00", "1"], ["prof", "it"], ["h", "ig"], ["as", "k"], ["sp", "ac"], ["po", "k"], ["ma", "th"], ["ma", "king"], ["ff", "ff"], ["appli", "ed"], ["u", "fact"], ["v", "es"], ["read", "able"], ["man", "ufact"], ["el", "apsed"], ["indepen", "dence"], ["suc", "cess"], ["hig", "he"], ["u", "ation"], ["us", "ive"], ["as", "in"], ["pat", "ient"], ["tas", "ks"], ["fem", "ale"], ["5", "9"], ["5", "0000"], ["c", "ub"], ["ur", "ing"], ["stat", "s"], ["d", "ress"], ["twe", "ets"], ["purch", "ase"], ["convers", "ation"], ["d", "r"], ["wikip", "edia"], ["n", "ational"], ["in", "vent"], ["month", "s"], ["palind", "rom"], ["invent", "ory"], ["us", "age"], ["pro", "xy"], ["diff", "icult"], ["lar", "ge"], ["tren", "ds"], ["ninj", "as"], ["highe", "st"], ["4", "7"], ["3", "9"], ["su", "per"], ["fun", "d"], ["reg", "ression"], ["geo", "code"], ["bl", "ing"], ["metr", "ic"], ["fr", "an"], ["man", "ager"], ["bit", "coin"], ["environ", "ment"], ["categ", "or"], ["cap", "t"], ["ship", "ping"], ["jo", "ke"], ["le", "ave"], ["trail", "ing"], ["pro", "ces"], ["tik", "tok"], ["li", "ter"], ["fa", "st"], ["res", "i"], ["pro", "to"], ["last", "ly"], ["t", "re"], ["who", "le"], ["ste", "am"], ["dou", "bling"], ["at", "tr"], ["sch", "e"], ["st", "d"], ["ph", "ys"], ["oper", "ation"], ["pok", "é"], ["n", "ull"], ["4", "00"], ["dynam", "ic"], ["audi", "o"], ["qu", "ad"], ["20", "19"], ["calcul", "ation"], ["ger", "many"], ["ob", "serv"], ["ck", "et"], ["read", "s"], ["recomm", "ended"], ["cro", "ss"], ["z", "i"], ["an", "ces"], ["quer", "ies"], ["anagram", "s"], ["ate", "ly"], ["fi", "xt"], ["vo", "we"], ["channe", "ls"], ["screen", "shot"], ["st", "u"], ["calculate", "d"], ["palindrom", "ic"], ["p", "ick"], ["sh", "u"], [" \"", ".\","], ["g", "ain"], ["set", "t"], ["sup", "port"], ["trapezoid", "al"], ["to", "wn"], ["mi", "le"], ["pli", "es"], ["r", "ac"], ["list", "ing"], ["mo", "der"], ["she", "et"], ["di", "et"], ["contin", "ent"], ["respective", "ly"], ["micro", "soft"], ["en", "cies"], ["et", "f"], ["fa", "h"], ["no", "des"], ["ani", "me"], ["7", "3"], ["ec", "raft"], ["ho", "t"], ["fe", "atures"], ["pare", "nt"], ["fit", "ness"], ["c", "p"], ["g", "ing"], ["mat", "r"], ["stor", "es"], ["sub", "strings"], ["other", "wise"], ["d", "ri"], ["a", "w"], ["an", "ced"], ["re", "verses"], ["se", "g"], ["be", "gin"], ["trans", "actions"], ["wr", "it"], ["algor", "ithm"], ["l", "ve"], ["se", "dent"], ["ex", "am"], ["sedent", "ary"], ["a", "x"], ["l", "f"], ["er", "ed"], ["to", "m"], ["str", "ong"], ["par", "ag"], ["ta", "kes"], ["back", "ground"], ["ok", "es"], ["man", "age"], ["parag", "raph"], ["photo", "s"], ["ap", "ples"], ["go", "od"], ["permut", "ation"], ["s", "av"], ["v", "ing"], ["ac", "cur"], ["10", "24"], ["rec", "it"], ["bu", "y"], ["prefer", "ences"], ["ignor", "ing"], ["h", "er"], ["h", "app"], ["ver", "i"], ["he", "it"], ["ren", "heit"], ["pre", "dic"], ["uni", "x"], ["ext", "roverts"], ["fah", "renheit"], ["s", "ou"], ["fa", "mi"], ["ve", "ls"], ["g", "s"], ["ac", "y"], ["plan", "e"], ["contrac", "t"], [" ", "["], ["se", "x"], ["incl", "usive"], ["stick", "er"], ["a", "th"], ["th", "ose"], ["ti", "cal"], ["cop", "per"], ["cook", "ing"], ["7", "2"], ["b", "ed"], ["fa", "ke"], ["am", "es"], ["sw", "ap"], ["stric", "t"], ["g", "a"], ["person", "al"], ["c", "ash"], ["un", "ded"], ["defin", "ed"], ["repe", "ating"], ["or", "e"], ["to", "do"], ["de", "code"], ["authenti", "c"], ["sett", "ings"], ["list", "ed"], ["por", "n"], ["int", "roverts"], ["suppor", "ts"], ["occurren", "ce"], ["difficult", "y"], ["re", "venue"], ["ac", "ket"], ["min", "ecraft"], ["appear", "s"], ["cach", "e"], ["shu", "ff"], ["st", "in"], ["reg", "ist"], ["head", "lines"], ["secur", "ities"], ["dete", "ct"], [" '.',", " '.',"], ["con", "sist"], ["0000", "0000"], ["m", "ang"], ["str", "ate"], ["list", "ings"], ["di", "r"], ["stand", "ing"], ["1000000", "000"], ["resi", "stance"], ["porn", "star"], ["so", "c"], ["gen", "ce"], ["cre", "dit"], ["av", "a"], ["feed", "back"], ["sq", "l"], ["proces", "sed"], ["4", "9"], ["ai", "gn"], ["par", "tic"], ["query", "ing"], ["camp", "aign"], ["cub", "es"], ["j", "u"], ["ap", "ps"], ["6", "9"], ["char", "lie"], ["fun", "c"], ["sequ", "ences"], ["analyz", "es"], ["f", "req"], ["o", "ds"], ["ch", "a"], ["num", "eric"], ["combin", "e"], ["soc", "cer"], ["c", "entr"], ["al", "ong"], ["res", "h"], ["ag", "o"], ["85", "4"], ["mer", "ges"], ["hashtag", "s"], ["ru", "g"], ["ai", "ls"], ["coun", "ter"], ["predic", "ted"], ["1", "10"], ["fa", "ces"], ["ad", "v"], ["cre", "ated"], ["tech", "n"], ["euro", "pe"], ["chun", "k"], ["fixt", "ures"], ["j", "okes"], ["over", "view"], ["19", "90"], ["specify", "ing"], ["y", "o"], ["in", "flu"], ["pe", "ak"], ["rat", "ic"], ["idd", "le"], ["quad", "ratic"], ["8", "2"], ["t", "on"], ["pur", "po"], ["acc", "ord"], ["d", "ash"], ["z", "es"], ["ch", "amp"], ["ma", "de"], ["mi", "ted"], ["gh", "ts"], ["remov", "ed"], ["vari", "ables"], ["roll", "ing"], ["ific", "ation"], ["vowe", "ls"], ["r", "ule"], ["be", "en"], ["gener", "ator"], ["sign", "al"], ["ste", "ps"], ["r", "on"], ["proto", "col"], ["ex", "amples"], ["mis", "sion"], ["sele", "cted"], ["sen", "si"], ["phys", "ical"], ["6", "00"], ["od", "ds"], ["b", "ra"], ["f", "fix"], ["too", "l"], ["fetch", "ing"], ["su", "ffix"], ["tok", "yo"], ["tren", "d"], ["neur", "onal"], ["c", "are"], ["c", "ri"], ["ator", "s"], ["log", "ical"], ["quanti", "ties"], ["fav", "or"], ["fami", "ly"], ["us", "es"], ["li", "te"], ["sh", "if"], ["entr", "ies"], ["p", "as"], ["typ", "ically"], ["accord", "ing"], ["on", "t"], ["ch", "all"], ["ic", "a"], ["is", "su"], ["ap", "ri"], ["5", "1"], ["po", "unds"], ["si", "m"], ["jo", "in"], ["original", "ly"], ["twe", "et"], ["n", "hl"], ["e", "very"], ["s", "ince"], ["ten", "ance"], ["main", "tenance"], ["cn", "pj"], ["s", "ave"], ["w", "ater"], ["on", "line"], ["de", "posit"], ["gro", "ss"], ["c", "enti"], ["i", "ble"], ["head", "ers"], ["exp", "and"], ["n", "av"], ["market", "ing"], ["deli", "very"], ["tic", "s"], ["it", "or"], ["can", "ada"], ["mat", "o"], ["bi", "o"], ["flo", "ating"], ["arg", "ument"], ["9", "3"], ["b", "c"], ["k", "no"], ["w", "all"], ["de", "let"], ["co", "ur"], ["ent", "er"], ["inte", "lli"], ["ri", "te"], ["opti", "mi"], ["maj", "ority"], ["intelli", "gence"], ["m", "ask"], ["y", "a"], ["202", "5"], ["exp", "ected"], ["matr", "ices"], ["n", "is"], ["co", "efficient"], ["competi", "tion"], ["j", "ava"], ["p", "and"], ["w", "rite"], ["fi", "ve"], ["au", "str"], ["p", "un"], ["ou", "ght"], ["ers", "cor"], ["und", "erscor"], ["evalu", "ate"], ["g", "radi"], ["h", "av"], ["act", "ors"], ["gb", "p"], ["u", "ti"], ["ct", "uation"], ["order", "ed"], ["main", "tain"], ["profi", "les"], ["i", "ata"], ["ren", "tal"], ["em", "ails"], ["0000", "0"], ["box", "es"], ["t", "all"], ["re", "f"], ["pay", "or"], ["authentic", "ation"], ["ul", "es"], ["le", "vels"], ["per", "im"], ["bi", "lity"], ["sent", "ences"], ["l", "r"], ["rap", "e"], ["pre", "dicts"], ["pay", "out"], ["update", "d"], ["remov", "ing"], ["sch", "o"], ["pu", "zz"], ["motor", "cycle"], ["to", "mato"], ["usd", "t"], ["prefer", "red"], ["sec", "ret"], ["sen", "sor"], ["ar", "ith"], ["accep", "ted"], ["pand", "as"], ["5", "4321"], ["ff", "ic"], ["reg", "istr"], ["season", "s"], ["frequ", "encies"], ["rank", "ings"], ["engine", "er"], ["f", "ed"], ["in", "ts"], ["one", "y"], ["char", "s"], ["go", "als"], ["excl", "ude"], ["lap", "top"], ["b", "ought"], ["ne", "e"], ["specific", "ations"], ["americ", "a"], ["en", "sive"], ["fa", "sta"], ["coin", "s"], ["schedul", "ed"], ["d", "ns"], ["re", "member"], ["ma", "gn"], ["hour", "ly"], ["faci", "lity"], ["tomato", "es"], ["s", "nap"], ["out", "puts"], ["quest", "ions"], ["a", "res"], ["m", "arch"], ["p", "an"], ["ip", "sum"], ["time", "frame"], ["trac", "king"], ["off", "er"], ["lor", "em"], ["to", "mor"], ["ger", "man"], ["degre", "e"], ["att", "end"], ["prov", "id"], ["exec", "u"], ["tomor", "row"], ["wi", "ki"], ["di", "es"], ["im", "port"], ["ge", "x"], ["ag", "g"], ["ten", "nis"], ["draw", "ing"], ["twit", "ch"], ["rat", "io"], ["cis", "co"], ["magn", "itude"], ["e", "ast"], ["i", "li"], ["re", "gex"], ["ts", "v"], ["direct", "ories"], ["weigh", "ted"], ["m", "ber"], ["v", "ation"], ["ul", "om"], ["str", "ain"], ["co", "ulom"], ["download", "s"], ["fli", "x"], ["an", "k"], ["se", "ct"], ["new", "sp"], ["lb", "s"], ["ran", "king"], ["float", "s"], ["austr", "al"], ["20", "18"], ["cont", "rol"], ["convert", "ing"], ["cor", "rect"], ["cor", "ner"], ["fran", "cisco"], ["bot", "tom"], ["favor", "ite"], ["g", "all"], ["i", "ly"], ["li", "br"], ["array", "s"], ["rover", "ted"], ["sou", "th"], ["h", "ad"], ["ro", "utes"], ["poli", "cy"], ["]", ","], ["c", "ing"], ["si", "mp"], ["compo", "und"], ["f", "est"], ["k", "er"], ["p", "ad"], ["parti", "cular"], ["dollar", "s"], ["nee", "ded"], ["8", "7"], ["m", "id"], ["oper", "ations"], ["chun", "ks"], ["sche", "ma"], ["d", "uring"], ["ll", "ing"], ["equ", "ation"], ["cat", "alog"], ["newsp", "aper"], ["iv", "ed"], ["place", "hold"], ["nav", "ig"], ["gradi", "ent"], ["li", "fe"], ["check", "out"], ["met", "a"], ["bir", "d"], ["da", "q"], ["nas", "daq"], ["ex", "tern"], ["commun", "ity"], ["ince", "ption"], ["require", "ments"], ["ord", "ers"], ["mo", "bi"], ["bor", "n"], ["the", "me"], ["re", "posit"], ["en", "ses"], ["10", "2"], ["scrip", "t"], ["aler", "ts"], ["cp", "f"], ["centr", "al"], ["c", "ape"], ["g", "ar"], ["re", "main"], ["con", "stru"], ["tem", "po"], ["squ", "ares"], ["p", "aper"], ["stor", "ies"], ["transl", "ation"], ["concaten", "ate"], ["`", "`"], ["j", "p"], ["m", "oney"], ["t", "m"], ["co", "pe"], ["app", "end"], ["pix", "el"], ["coulom", "bs"], ["extern", "al"], ["u", "i"], ["ad", "j"], ["pres", "s"], ["br", "ation"], ["bound", "ary"], ["normal", "ize"], ["give", "away"], ["dep", "th"], ["writ", "ten"], ["partic", "ip"], ["se", "ver"], ["length", "s"], ["libr", "ary"], ["k", "l"], ["per", "mi"], ["param", "s"], ["sta", "ff"], ["section", "al"], ["child", "ren"], ["recommend", "ations"], ["mobi", "le"], ["permi", "tivity"], ["j", "ul"], ["ch", "ic"], ["check", "in"], ["place", "ment"], ["centi", "meters"], ["5", "7"], ["c", "g"], ["o", "wn"], ["p", "interest"], ["st", "ep"], ["an", "not"], ["ag", "r"], ["equ", "ival"], ["apri", "l"], ["read", "y"], ["employe", "es"], ["serv", "ices"], ["v", "ed"], ["cont", "ents"], ["out", "standing"], ["15", "00"], ["asset", "s"], ["prov", "ider"], ["chic", "ago"], ["so", "ld"], ["55", "5"], ["mov", "ing"], ["h", "al"], ["un", "e"], ["request", "s"], ["entr", "y"], ["exec", "ute"], ["4", "3"], ["m", "x"], ["com", "pre"], ["ver", "s"], ["ie", "ld"], ["per", "io"], ["sum", "mer"], ["equ", "ili"], ["bri", "um"], ["poké", "mon"], ["compre", "h"], ["equili", "brium"], ["n", "m"], ["dis", "placement"], ["45", "8"], ["abi", "lities"], ["milli", "seconds"], ["fic", "ial"], ["estim", "ates"], ["recursive", "ly"], ["as", "sign"], ["ear", "th"], ["su", "it"], ["br", "ight"], ["4", "1"], ["k", "fc"], ["co", "li"], ["tra", "ffic"], ["transl", "ated"], ["expir", "ation"], ["k", "th"], ["az", "ure"], ["process", "es"], ["zero", "s"], ["cali", "bration"], ["98765", "4321"], ["mang", "a"], ["cal", "led"], ["ex", "pon"], ["week", "ly"], ["permut", "ations"], ["reser", "ve"], ["sensi", "tive"], ["do", "t"], ["mon", "itor"], ["manufact", "ur"], ["adv", "anced"], ["f", "ont"], ["u", "tri"], ["de", "limit"], ["ma", "g"], ["pre", "mi"], ["top", "ics"], ["----", "----"], ["outputs", "ize"], [" ", "("], ["q", "w"], ["en", "coding"], ["com", "mod"], ["arti", "ficial"], ["che", "ese"], ["regist", "ered"], ["con", "du"], ["ip", "pet"], ["train", "ing"], ["sn", "ippet"], ["b", "ig"], ["k", "en"], ["re", "stric"], ["as", "ia"], ["00", "01"], ["sy", "n"], ["56", "78"], ["refer", "ence"], ["5", "8"], ["b", "m"], ["g", "hi"], ["g", "mail"], ["m", "it"], ["se", "o"], ["ed", "ges"], ["bl", "ack"], ["pri", "ority"], ["00", "2"], ["night", "ly"], ["promo", "tion"], ["depart", "ment"], ["con", "text"], ["ex", "pl"], ["whi", "te"], ["e", "ch"], ["n", "l"], ["t", "const"], ["po", "em"], ["pr", "iv"], ["ang", "les"], ["fru", "its"], ["traver", "se"], ["r", "ing"], ["in", "puts"], ["gener", "al"], ["organ", "ization"], ["manufactur", "er"], ["al", "ig"], ["im", "es"], ["find", "ing"], ["om", "et"], ["enti", "ties"], ["prediction", "s"], ["spe", "ech"], ["replac", "ed"], ["lay", "er"], ["arm", "strong"], ["7", "128"], ["c", "agr"], ["g", "th"], ["h", "is"], ["st", "ren"], ["es", "cape"], ["li", "o"], ["ec", "onom"], ["faci", "lities"], ["stren", "gth"], ["n", "ft"], ["w", "rap"], ["in", "k"], ["ch", "in"], ["dis", "pos"], ["oper", "ator"], ["2", "10"], ["w", "are"], ["re", "st"], ["me", "tic"], ["ne", "y"], ["par", "tial"], ["collection", "s"], ["arith", "metic"], ["h", "r"], ["th", "um"], ["st", "age"], ["show", "s"], ["nec", "ess"], ["fru", "it"], ["a", "fr"], ["c", "lock"], ["p", "p"], ["star", "s"], ["bre", "ak"], ["colle", "ct"], ["gam", "ing"], ["kno", "wn"], ["d", "av"], ["ro", "ck"], ["market", "s"], ["dete", "ction"], ["breed", "s"], ["war", "ds"], ["c", "coli"], ["de", "ep"], ["en", "cryp"], ["ide", "as"], ["ex", "peri"], ["em", "ily"], ["bro", "ccoli"], ["equival", "ent"], ["sp", "ir"], ["separ", "ator"], ["oc", "cur"], ["delimit", "er"], ["necess", "ary"], ["ac", "ts"], ["ly", "r"], ["valid", "ation"], ["met", "er"], ["not", "es"], ["factor", "s"], ["dra", "wn"], ["phr", "ases"], ["rat", "ings"], ["sec", "ure"], ["industr", "y"], ["c", "ult"], ["c", "key"], ["re", "lat"], ["le", "y"], ["fa", "cts"], ["tr", "y"], ["ho", "ckey"], ["cl", "ub"], ["air", "ports"], ["sho", "el"], ["sk", "in"], ["..", "."], ["shoel", "ace"], ["b", "and"], ["z", "n"], ["ro", "unded"], ["ur", "i"], ["mi", "x"], ["fe", "et"], ["rele", "ases"], ["adjust", "ed"], ["hor", "os"], ["rug", "by"], ["k", "o"], ["r", "ules"], ["connec", "tion"], ["episo", "des"], ["observ", "ations"], ["purpo", "ses"], ["thum", "bn"], ["s", "ar"], ["sh", "az"], ["shaz", "am"], ["i", "co"], ["n", "i"], ["ec", "ar"], ["some", "thing"], ["develop", "ment"], [" \".\",", " \".\","], ["c", "ame"], ["g", "if"], ["s", "can"], ["de", "l"], ["str", "o"], ["you", "tube"], ["cho", "ose"], ["pun", "ctuation"], ["commod", "ity"], ["8", "3"], ["9", "7"], ["c", "c"], ["tem", "p"], ["valid", "ated"], ["fe", "el"], ["annual", "ly"], ["replace", "ment"], ["brand", "s"], ["simul", "ates"], ["maj", "or"], ["appro", "x"], ["\n", "    "], ["an", "e"], ["us", "ion"], ["pro", "vin"], ["ke", "ep"], ["pres", "er"], ["air", "plan"], ["nor", "th"], ["airplan", "es"], ["3", "000"], ["ve", "get"], ["si", "zes"], ["tem", "por"], ["hav", "ing"], ["fed", "er"], ["a", "j"], ["g", "al"], ["m", "and"], ["w", "ard"], ["in", "di"], ["ti", "les"], ["10", "3"], ["ra", "w"], ["bi", "ble"], ["inser", "t"], ["accur", "acy"], ["b", "log"], ["e", "co"], ["k", "an"], ["no", "mi"], ["specific", "ally"], ["gre", "at"], ["cost", "s"], ["poly", "nomi"], ["hum", "ans"], ["dar", "k"], ["modi", "fy"], ["registr", "ation"], ["f", "b"], ["arr", "ival"], ["go", "ods"], ["mor", "ning"], ["read", "ing"], ["l", "k"], ["exact", "ly"], ["puzz", "les"], ["jul", "y"], ["thumbn", "ail"], ["e", "f"], ["u", "es"], ["x", "c"], ["de", "mo"], ["ut", "f"], ["mo", "tiv"], ["test", "net"], ["indic", "ates"], ["abc", "def"], ["linked", "in"], ["n", "at"], ["expres", "s"], ["publish", "ed"], ["identi", "fied"], ["author", "ization"], ["begin", "ning"], ["approx", "im"], ["h", "ar"], ["w", "s"], ["an", "ity"], ["co", "effici"], ["ic", "an"], ["am", "zn"], ["con", "ti"], ["hel", "per"], ["sal", "e"], ["dou", "ble"], ["competi", "tions"], ["dispos", "able"], ["coeffici", "ents"], ["le", "et"], ["lo", "y"], ["ter", "y"], ["ho", "o"], ["exp", "enses"], ["bacter", "ia"], ["feel", "ing"], ["close", "st"], ["perio", "ds"], ["g", "ed"], ["r", "ated"], ["for", "ce"], ["ic", "on"], ["as", "si"], ["86", "01"], ["moder", "ately"], ["provid", "ing"], ["e", "ye"], ["i", "ed"], ["or", "anges"], ["de", "ce"], ["is", "sion"], ["di", "ag"], ["search", "ed"], ["act", "or"], ["enti", "ty"], ["relat", "ive"], ["j", "une"], ["n", "th"], ["12", "00"], ["ya", "hoo"], ["v", "s"], ["fo", "c"], ["inter", "national"], ["tu", "res"], ["gu", "ous"], ["conti", "guous"], ["z", "ed"], ["at", "om"], ["pl", "ates"], ["fin", "ally"], ["red", "dit"], ["acce", "pt"], ["pattern", "s"], ["shif", "t"], ["5", "4"], ["i", "bility"], ["by", "id"], ["pa", "id"], ["gre", "et"], ["cons", "ult"], ["polynomi", "al"], ["a", "e"], ["m", "j"], ["y", "ield"], ["am", "ps"], ["ger", "s"], ["return", "ing"], ["cur", "ious"], ["divide", "d"], ["expres", "sed"], ["manage", "ment"], ["adj", "ac"], ["dece", "mber"], ["e", "g"], ["de", "cor"], ["ed", "uc"], ["di", "strict"], ["ex", "er"], ["mm", "dd"], ["bi", "ke"], ["remo", "te"], ["des", "k"], ["rece", "ived"], ["capt", "cha"], ["f", "resh"], ["z", "w"], ["ro", "unds"], ["fi", "ll"], ["si", "l"], ["20", "15"], ["ex", "perim"], ["produ", "ced"], ["ph", "ones"], ["alpha", "be"], ["mile", "age"], ["seg", "ment"], ["lite", "coin"], ["'", "."], ["admin", "istr"], ["go", "t"], ["plan", "et"], ["ye", "llow"], ["rol", "led"], ["twe", "lve"], ["hor", "se"], ["g", "rape"], ["s", "li"], ["99", "9"], ["exist", "ing"], ["combin", "ations"], ["influ", "en"], ["alig", "n"], ["lyr", "ics"], ["ll", "a"], ["stor", "ed"], ["tal", "ks"], ["bro", "ad"], ["login", "user"], ["chall", "en"], ["provin", "ce"], ["indi", "a"], ["j", "a"], ["w", "a"], ["in", "valid"], ["st", "ack"], ["ti", "d"], ["ction", "s"], ["comp", "li"], ["cr", "imes"], ["tick", "et"], ["ak", "t"], ["electr", "on"], ["sur", "ve"], ["rac", "ecar"], ["g", "it"], ["p", "in"], ["in", "sensitive"], ["res", "olution"], ["pro", "te"], ["iz", "ing"], ["bl", "ank"], ["33", "3"], ["temper", "atures"], ["zi", "llow"], ["challen", "ge"], ["6", "2"], ["9", "1"], ["v", "id"], ["al", "ready"], ["tr", "iv"], ["me", "me"], ["separ", "ate"], ["version", "s"], ["high", "lights"], ["stu", "dy"], ["happ", "y"], ["giveaway", "s"], ["6", "01"], ["f", "lights"], ["di", "stin"], ["ab", "bre"], ["45", "5"], ["rapid", "api"], ["factor", "ization"], ["uti", "li"], ["scho", "ol"], ["un", "ch"], ["quer", "ied"], ["bu", "g"], ["cor", "por"], ["car", "s"], ["concaten", "ates"], ["repe", "ated"], ["kan", "ji"], ["p", "adding"], ["on", "ce"], ["an", "imal"], ["bu", "cket"], ["port", "fo"], ["wall", "et"], ["delet", "e"], ["f", "all"], ["l", "en"], ["o", "ts"], ["w", "al"], ["un", "signed"], ["gen", "e"], ["signific", "ant"], ["ffff", "ff"], ["s", "wi"], ["st", "ic"], ["ec", "tion"], ["lo", "go"], ["00", "60"], ["do", "m"], ["class", "ification"], ["filen", "ames"], ["ax", "is"], ["distin", "ct"], ["g", "pa"], ["an", "as"], ["re", "plies"], ["he", "ld"], ["est", "er"], ["sub", "trac"], ["prof", "anity"], ["ban", "anas"], ["strate", "gy"], ["7", "78"], ["n", "ba"], ["s", "r"], ["ed", "ge"], ["fe", "e"], ["dig", "ital"], ["replac", "ing"], ["triv", "ia"], ["j", "py"], ["m", "ad"], ["p", "lot"], ["y", "ms"], ["z", "ones"], ["us", "si"], ["ber", "lin"], ["sy", "non"], ["order", "ing"], ["11", "8"], ["yyyy", "mmdd"], ["recent", "ly"], ["cour", "se"], ["austral", "ia"], ["tempor", "ary"], ["experim", "ent"], ["synon", "yms"], ["'", ".',"], ["b", "pm"], ["e", "asy"], ["ter", "s"], ["com", "ed"], ["inter", "section"], ["off", "ice"], ["emplo", "y"], ["lead", "er"], ["champ", "ion"], ["in", "spir"], ["what", "s"], ["comp", "at"], ["7", "1"], ["s", "us"], ["w", "g"], ["am", "ong"], ["mo", "ck"], ["json", "p"], ["bit", "wise"], ["hote", "ls"], ["develop", "ing"], ["dav", "id"], ["n", "c"], ["s", "ms"], ["}", ","], ["ge", "omet"], ["20", "17"], ["sc", "rap"], ["car", "bon"], ["mem", "ory"], ["run", "ning"], ["americ", "an"], ["techn", "ical"], ["surve", "y"], ["2", "99"], ["7", "92"], ["t", "urn"], ["in", "ten"], ["20", "10"], ["im", "ple"], ["time", "out"], ["bas", "es"], ["came", "l"], ["preser", "ving"], ["i", "or"], ["respon", "ses"], ["crypto", "currencies"], ["episo", "de"], ["cal", "ories"], ["me", "x"], ["pr", "ints"], ["retriev", "ing"], ["class", "es"], ["bre", "w"], ["cli", "ck"], ["underscor", "es"], ["e", "po"], ["f", "ur"], ["f", "ish"], ["r", "ain"], ["in", "um"], ["list", "en"], ["so", "l"], ["sc", "en"], ["post", "ed"], ["extrac", "ted"], ["hand", "le"], ["cover", "ed"], ["consum", "ption"], ["veri", "fied"], ["constru", "cts"], ["feder", "al"], ["3", "20"], ["h", "ip"], ["v", "ac"], ["ti", "m"], ["le", "x"], ["ce", "le"], ["bo", "dies"], ["13", "5"], ["doc", "x"], ["net", "flix"], ["goog", "l"], ["reverse", "d"], ["66", "66"], ["compon", "ents"], ["incre", "ment"], ["h", "ue"], ["se", "ed"], ["cur", "ve"], ["pe", "g"], ["lot", "tery"], ["ski", "lls"], ["p", "ed"], ["al", "um"], ["ro", "id"], ["ber", "ry"], ["up", "stream"], ["ele", "vation"], ["met", "al"], ["invest", "ed"], ["inst", "e"], ["combin", "ation"], ["relev", "ance"], ["deli", "mited"], ["appro", "pri"], ["agg", "reg"], ["nat", "ural"], ["f", "urn"], ["u", "ui"], ["par", "ts"], ["fir", "m"], ["comp", "u"], ["sign", "ature"], ["tra", "its"], ["recit", "ations"], ["r", "iddle"], ["ti", "de"], ["ro", "ad"], ["cl", "ai"], ["main", "net"], ["off", "ic"], ["22", "2"], ["flatten", "s"], ["c", "and"], ["l", "t"], ["s", "ites"], ["co", "der"], ["ro", "ots"], ["im", "pro"], ["em", "ission"], ["uni", "ver"], ["inc", "ide"], ["plan", "ts"], ["divis", "ible"], ["serial", "ize"], ["capt", "ure"], ["epo", "ch"], ["7", "00"], ["c", "raft"], ["j", "peg"], ["en", "able"], ["min", "i"], ["ta", "ken"], ["br", "acket"], ["sv", "g"], ["integr", "al"], ["transform", "s"], ["cri", "me"], ["\n", "  "], ["2", "88"], ["4", "000"], ["h", "j"], ["se", "lf"], ["ac", "com"], ["ad", "o"], ["mo", "od"], ["sup", "ply"], ["decimal", "s"], ["33", "4"], ["timest", "amps"], ["birth", "day"], ["tt", "le"], ["concaten", "ated"], ["recit", "ation"], ["sim", "ple"], ["horos", "cope"], ["w", "ants"], ["z", "ap"], ["se", "a"], ["am", "a"], ["sp", "ot"], ["be", "ats"], ["data", "frame"], ["go", "ver"], ["act", "ual"], ["oc", "cup"], ["process", "ing"], ["g", "cd"], ["an", "cy"], ["ay", "ah"], ["ke", "to"], ["sub", "directories"], ["sort", "by"], ["lear", "n"], ["dep", "loy"], ["impro", "ve"], ["9", "6"], ["g", "an"], ["z", "h"], ["de", "als"], ["ar", "ds"], ["so", "lution"], ["ren", "t"], ["air", "line"], ["book", "ing"], ["rel", "ation"], ["mu", "h"], ["mark", "down"], ["euro", "s"], ["pick", "le"], ["electron", "ics"], ["offic", "ial"], ["zap", "pos"], ["ti", "l"], ["ul", "o"], ["com", "paris"], ["mo", "ment"], ["check", "er"], ["set", "ting"], ["sub", "list"], ["divis", "ions"], ["98765", "432"], ["diet", "ary"], ["fest", "ival"], ["chin", "ese"], ["c", "ases"], ["f", "ant"], ["m", "d"], ["s", "am"], ["in", "o"], ["se", "mi"], ["res", "ume"], ["si", "ded"], ["100", "01"], ["stat", "ist"], ["auto", "mat"], ["accep", "ts"], ["experi", "ence"], ["a", "bo"], ["s", "hel"], ["v", "at"], ["z", "p"], ["ce", "ed"], ["result", "ing"], ["cre", "ator"], ["16", "0"], ["draw", "s"], ["measure", "ments"], ["popular", "ity"], ["accep", "table"], ["reposit", "ory"], [" ", "`"], ["es", "ports"], ["ro", "ss"], ["ac", "ross"], ["00", "3"], ["con", "ce"], ["pro", "g"], ["by", "pass"], ["lim", "its"], ["john", "doe"], ["web", "page"], ["fram", "es"], ["shor", "ts"], ["ron", "utri"], ["portfo", "lio"], ["hand", "les"], ["mac", "ronutri"], ["expir", "y"], ["dash", "board"], ["alum", "inum"], ["c", "s"], ["k", "it"], ["z", "er"], ["es", "cap"], ["no", "ti"], ["cont", "acts"], ["inter", "po"], ["cor", "rection"], ["arg", "s"], ["expression", "s"], ["sat", "is"], ["zw", "q"], ["ussi", "an"], ["comed", "y"], ["accom", "mo"], ["f", "ing"], ["w", "gs"], ["x", "m"], ["de", "nti"], ["li", "kes"], ["ne", "west"], ["we", "l"], ["valid", "ity"], ["comm", "er"], ["john", "son"], ["fix", "ed"], ["23", "4"], ["evolution", "ary"], ["c", "ig"], ["h", "k"], ["v", "a"], ["pro", "ceed"], ["bo", "ss"], ["iv", "es"], ["10", "5"], ["tiv", "es"], ["enti", "al"], ["graph", "ic"], ["bn", "b"], ["compli", "ance"], ["cig", "ar"], ["r", "ic"], ["de", "mand"], ["ar", "k"], ["se", "p"], ["id", "ity"], ["ex", "changes"], ["im", "per"], ["produ", "ction"], ["perform", "ed"], ["mean", "ing"], ["allow", "s"], ["excl", "uding"], ["enter", "tain"], ["mj", "ju"], ["299", "792"], ["appropri", "ate"], ["299792", "458"], ["4", "6"], ["get", "ting"], ["ang", "ing"], ["pre", "c"], ["que", "ue"], ["bu", "d"], ["complet", "ed"], ["parti", "tion"], ["r", "si"], ["ar", "ian"], ["fi", "ght"], ["ce", "lest"], ["fr", "ag"], ["btc", "usdt"], ["health", "care"], ["release", "d"], ["japan", "ese"], ["compreh", "ensive"], ["entertain", "ment"], ["celest", "ial"], ["b", "ul"], ["d", "ro"], ["m", "le"], ["ur", "ls"], ["lo", "ss"], ["light", "ly"], ["frequ", "ent"], ["cap", "ac"], ["high", "light"], ["sat", "uration"], ["friend", "s"], ["bright", "ness"], ["desk", "top"], ["macronutri", "ent"], ["6", "80"], ["re", "ally"], ["ic", "ons"], ["res", "or"], ["sp", "ital"], ["so", "lar"], ["uni", "ties"], ["comp", "i"], ["90", "210"], ["person", "ality"], ["measure", "d"], ["direction", "s"], ["restric", "tions"], ["expl", "or"], ["comparis", "on"], [" ", "{"], ["n", "ers"], ["r", "ai"], ["202", "6"], ["random", "ly"], ["17", "2"], ["display", "ed"], ["sl", "ash"], ["accommo", "date"], ["end", "s"], ["gener", "ating"], ["ot", "a"], ["pi", "ec"], ["modi", "fied"], ["exce", "ption"], ["gall", "on"], ["hal", "f"], ["d", "c"], ["in", "stru"], ["ch", "ess"], ["im", "db"], ["up", "load"], ["char", "ging"], ["cor", "p"], ["names", "pace"], ["gu", "ide"], ["devel", "oper"], ["simp", "son"], ["placehold", "ers"], ["try", "ing"], ["1", "75"], ["m", "r"], ["the", "mat"], ["sp", "ain"], ["ma", "themat"], ["calcul", "ator"], ["ho", "spital"], ["educ", "ation"], ["bud", "get"], ["n", "ic"], ["are", "as"], ["inde", "nt"], ["play", "ed"], ["mar", "ks"], ["med", "ic"], ["local", "ized"], ["cle", "ar"], ["hy", "ph"], ["pic", "tures"], ["r", "d"], ["v", "d"], ["al", "to"], ["en", "h"], ["wi", "de"], ["wh", "om"], ["so", "lve"], ["sum", "s"], ["follow", "ed"], ["web", "to"], ["pal", "o"], ["rot", "ate"], ["cho", "ices"], ["optimi", "ze"], ["bracket", "s"], ["fant", "asy"], ["e", "mo"], ["lo", "se"], ["pres", "sure"], ["light", "ness"], ["err", "ors"], ["tor", "ch"], ["platform", "s"], ["tre", "asure"], ["particip", "ants"], ["corpor", "ation"], ["288", "00"], ["m", "iddle"], ["n", "ation"], ["z", "ation"], ["in", "verse"], ["de", "prec"], ["for", "ward"], ["he", "brew"], ["go", "lf"], ["proj", "ection"], ["flo", "ors"], ["55", "55"], ["hand", "ling"], ["gain", "ers"], ["swi", "ft"], ["imper", "ial"], ["frag", "ment"], ["resor", "t"], ["2", "0000"], ["3", "456"], ["r", "ad"], ["li", "qu"], ["le", "gen"], ["it", "aly"], ["ang", "ular"], ["fr", "action"], ["io", "s"], ["multi", "plies"], ["traver", "ses"], ["ali", "as"], ["snap", "chat"], ["premi", "er"], ["8", "1"], ["i", "er"], ["al", "tern"], ["lo", "west"], ["ma", "kes"], ["ang", "ed"], ["sy", "d"], ["clo", "sed"], ["sug", "ar"], ["combin", "ed"], ["consecutive", "ly"], ["normal", "ized"], ["lam", "ar"], ["environment", "al"], ["tm", "all"], ["a", "ded"], ["j", "kl"], ["m", "b"], ["in", "n"], ["re", "ports"], ["fi", "er"], ["con", "n"], ["ne", "igh"], ["pro", "ble"], ["la", "w"], ["fer", "ence"], ["scal", "ing"], ["feed", "s"], ["issu", "e"], ["1", "12"], ["f", "k"], ["li", "mited"], ["ne", "l"], ["auto", "m"], ["gram", "s"], ["author", "ity"], ["fut", "ures"], ["open", "ing"], ["estim", "ated"], ["econom", "ic"], ["fin", "e"], ["par", "k"], ["sub", "st"], ["air", "craft"], ["index", "es"], ["rect", "angles"], ["inst", "ances"], ["shor", "ten"], ["ext", "re"], ["sect", "or"], ["h", "ub"], ["u", "g"], ["po", "ll"], ["ex", "tra"], ["dis", "c"], ["sign", "als"], ["cat", "s"], ["enti", "re"], ["dete", "cts"], ["rece", "ive"], ["ski", "ll"], ["tran", "sport"], ["scrap", "er"], ["5", "3"], ["o", "me"], ["re", "min"], ["un", "is"], ["sub", "sequence"], ["pay", "load"], ["custom", "ers"], ["prob", "abilities"], ["shor", "test"], ["afr", "ica"], ["cult", "ural"], ["inste", "ad"], ["98765432", "10"], ["syd", "ney"], ["lamar", "ck"], ["e", "a"], ["v", "iv"], ["fi", "ghts"], ["un", "til"], ["sum", "mar"], ["mar", "gin"], ["tri", "als"], ["mov", "es"], [" ", "..."], ["te", "le"], ["pl", "us"], ["ob", "d"], ["fil", "m"], ["represent", "ations"], ["index", "ed"], ["24", "680"], ["tex", "ts"], ["promotion", "al"], ["compat", "ibility"], ["inten", "sity"], ["0", "12"], ["k", "in"], ["m", "pg"], ["way", "s"], ["sur", "face"], ["in", "et"], ["et", "er"], ["ro", "bot"], ["100", "1"], ["business", "es"], ["motiv", "ational"], ["mle", "m"], ["extre", "me"], ["e", "ps"], ["i", "re"], ["in", "king"], ["to", "y"], ["fa", "ir"], ["ele", "ction"], ["analy", "st"], ["test", "ing"], ["equ", "ip"], ["cu", "be"], ["int", "roverted"], ["spe", "ak"], ["tra", "de"], ["ext", "roverted"], ["leader", "board"], ["135", "79"], ["g", "q"], ["k", "a"], ["fa", "sh"], ["lo", "aded"], ["ct", "ro"], ["ag", "ing"], ["ele", "ctro"], ["transl", "ations"], ["recommend", "ation"], ["fash", "ion"], ["s", "ay"], ["v", "w"], ["w", "on"], ["str", "ip"], ["it", "u"], ["tr", "un"], ["ve", "gan"], ["po", "et"], ["pl", "ain"], ["bu", "il"], ["mem", "re"], ["dri", "ve"], ["annot", "ations"], ["alphabe", "tical"], ["fur", "ther"], ["prog", "ress"], ["buil", "t"], ["]", ")"], ["c", "ss"], ["f", "s"], ["en", "dian"], ["li", "d"], ["mo", "zz"], ["sub", "titles"], ["interest", "ing"], ["over", "lap"], ["14", "4"], ["sup", "pli"], ["requi", "res"], ["tensor", "s"], ["ish", "ing"], ["flatten", "ed"], ["assess", "es"], ["sav", "ings"], ["3", "45"], ["h", "ard"], ["ke", "l"], ["ers", "hip"], ["pa", "res"], ["sub", "scrip"], ["sub", "mit"], ["16", "5"], ["lig", "a"], ["cho", "ice"], ["tran", "spo"], ["equip", "ment"], ["3", "65"], ["c", "arr"], ["f", "w"], ["g", "t"], ["y", "ester"], ["er", "a"], ["re", "du"], ["de", "coder"], ["co", "ll"], ["se", "ll"], ["be", "ach"], ["loc", "ks"], ["load", "s"], ["send", "s"], ["ker", "nel"], ["mozz", "art"], ["yester", "day"], ["4", "37"], ["to", "wer"], ["identifi", "ers"], ["vir", "t"], ["exce", "pt"], ["execu", "tion"], ["b", "locks"], ["d", "inner"], ["p", "c"], ["rec", "ted"], ["character", "istics"], ["flo", "ur"], ["weigh", "s"], ["``", "`"], ["greet", "ing"], ["fing", "er"], ["wel", "come"], ["legen", "ds"], ["mozzart", "bet"], ["virt", "ual"], ["3", "60"], ["j", "e"], ["p", "ul"], ["r", "id"], ["t", "d"], ["u", "fc"], ["y", "el"], ["at", "cg"], ["ac", "ces"], ["ver", "tex"], ["pre", "pare"], ["ree", "l"], ["original", "s"], ["cer", "ti"], ["hand", "ball"], ["communic", "ation"], ["administr", "ative"], ["webto", "on"], ["toy", "ota"], ["k", "im"], ["n", "u"], ["at", "ar"], ["op", "e"], ["ed", "inet"], ["ma", "ster"], ["ant", "a"], ["ci", "se"], ["av", "atar"], ["enti", "d"], ["descrip", "tions"], ["consist", "ing"], ["champ", "ions"], ["ane", "ws"], ["abo", "ve"], ["nation", "ality"], ["viv", "anews"], ["yel", "p"], ["re", "ach"], ["fa", "i"], ["lo", "ver"], ["wi", "ld"], ["rom", "an"], ["ou", "ter"], ["can", "on"], ["no", "min"], ["over", "all"], ["med", "ical"], ["18", "5"], ["medi", "ate"], ["vis", "it"], ["att", "ach"], ["small", "er"], ["lam", "b"], ["rac", "ing"], ["gar", "lic"], ["occup", "ation"], ["kel", "vin"], ["h", "am"], ["z", "r"], ["12", "7"], ["air", "bnb"], ["sk", "u"], ["see", "king"], ["organ", "iz"], ["strate", "g"], ["poem", "s"], ["priv", "ate"], ["sr", "c"], ["lamb", "da"], ["y", "w"], ["li", "t"], ["di", "al"], ["form", "ed"], ["12", "5"], ["mi", "cha"], ["target", "s"], ["ast", "er"], ["66", "6"], ["gu", "ar"], ["na", "ger"], ["',", " '"], ["sci", "enti"], ["tab", "s"], ["abbre", "viation"], ["shel", "ters"], ["micha", "el"], ["b", "ec"], ["c", "ers"], ["n", "ar"], ["com", "pres"], ["no", "vel"], ["au", "dit"], ["car", "t"], ["tick", "ers"], ["ki", "ll"], ["dog", "s"], ["pack", "ages"], ["simul", "ation"], ["    ", "    "], ["influen", "cers"], ["moment", "um"], ["capac", "ity"], ["piec", "e"], ["7", "13"], ["in", "spec"], ["20", "6"], ["10", "4"], ["market", "place"], ["doc", "string"], ["sele", "ction"], ["opti", "mal"], ["depart", "ure"], ["success", "es"], ["del", "ta"], ["c", "iv"], ["d", "v"], ["w", "ind"], ["in", "si"], ["st", "ay"], ["de", "bug"], ["en", "sur"], ["ass", "um"], ["trans", "fer"], ["even", "ing"], ["mark", "er"], ["shop", "ify"], ["shop", "ping"], ["reser", "ves"], ["sil", "ent"], ["ensur", "ing"], ["9", "75"], ["i", "se"], ["t", "ure"], ["qu", "al"], ["ver", "ification"], ["ide", "a"], ["iv", "ing"], ["lat", "in"], ["air", "plane"], ["over", "l"], ["40", "4"], ["qr", "code"], ["oc", "to"], ["class", "ify"], ["defini", "te"], ["mathemat", "ical"], ["b", "d"], ["b", "read"], ["j", "acket"], ["p", "ins"], ["we", "ap"], ["mo", "un"], ["ser", "t"], ["wor", "ks"], ["log", "ging"], ["car", "tes"], ["sele", "cts"], ["vis", "ual"], ["gene", "tic"], ["overl", "apping"], ["cartes", "ian"], ["s", "anta"], ["in", "ch"], ["er", "y"], ["re", "new"], ["de", "nomin"], ["to", "ler"], ["con", "cer"], ["10", "10"], ["mi", "lk"], ["wor", "th"], ["ta", "stic"], ["zip", "tastic"], ["05", "22"], ["lar", "ger"], ["44", "4"], ["win", "ning"], ["present", "ation"], ["trave", "led"], ["pic", "ture"], ["sar", "ah"], ["hj", "zr"], ["extreme", "ly"], ["gq", "xm"], ["electro", "static"], ["e", "yes"], ["p", "it"], ["p", "hi"], ["t", "p"], ["ac", "ti"], ["10", "11"], ["eld", "er"], ["repe", "at"], ["shuff", "le"], ["simp", "li"], ["veget", "arian"], ["2", "2022"], ["h", "sv"], ["de", "codes"], ["en", "codes"], ["arr", "ange"], ["ho", "bb"], ["produ", "c"], ["test", "s"], ["85", "48"], ["alph", "abet"], [" '", "."], ["eff", "ective"], ["94", "7"], ["pages", "ize"], ["short", "code"], ["nas", "a"], ["ga", "ussian"], ["renew", "able"], ["22022", "8548"], ["hobb", "ies"], ["6", "78"], ["8", "90"], ["g", "ir"], ["s", "na"], ["w", "ta"], ["er", "arch"], ["re", "ason"], ["en", "di"], ["se", "lling"], ["mo", "use"], ["tai", "l"], ["hi", "erarch"], ["col", "on"], ["fun", "ny"], ["trac", "e"], ["square", "d"], ["mus", "ical"], ["cir", "cu"], ["under", "stand"], ["condu", "ct"], ["arrival", "s"], ["geomet", "ry"], ["remin", "der"], ["d", "p"], ["m", "n"], ["r", "h"], ["in", "no"], ["id", "r"], ["un", "ding"], ["as", "ing"], ["con", "firm"], ["com", "pares"], ["sing", "les"], ["man", "ia"], ["ca", "ke"], ["leag", "ues"], ["consider", "ed"], ["stick", "ers"], ["sound", "cloud"], ["categor", "ize"], ["happ", "en"], ["issu", "es"], ["decor", "ator"], ["601", "6"], ["compu", "ter"], ["organiz", "ations"], ["toler", "ance"], ["6", "11"], ["j", "up"], ["p", "ip"], ["r", "anging"], ["s", "g"], ["t", "ro"], ["in", "ver"], ["ar", "di"], ["pr", "im"], ["inter", "face"], ["radi", "ans"], ["motor", "sport"], ["shuff", "les"], ["influ", "ence"], ["bio", "logical"], ["underscor", "e"], ["placehold", "er"], ["univer", "sity"], ["canon", "ical"], ["c", "ab"], ["ar", "i"], ["ap", "point"], ["con", "strain"], ["wh", "e"], ["be", "ll"], ["11", "1"], ["24", "37"], ["back", "links"], ["men", "u"], ["high", "way"], ["bound", "aries"], ["poli", "tics"], ["manager", "s"], ["octo", "ber"], ["sna", "ke"], ["g", "ith"], ["s", "now"], ["t", "x"], ["v", "as"], ["ar", "ithm"], ["um", "b"], ["am", "en"], ["sp", "here"], ["get", "learning"], ["ie", "ve"], ["cre", "denti"], ["match", "making"], ["log", "arithm"], ["fe", "w"], ["fe", "br"], ["proper", "ly"], ["66", "7"], ["36", "9"], ["assess", "ment"], ["wr", "ites"], ["aler", "t"], ["deprec", "ated"], ["gith", "ub"], ["getlearning", "resources"], ["credenti", "als"], ["febr", "uary"], ["6", "1"], ["b", "lo"], ["b", "row"], ["e", "e"], ["l", "cm"], ["n", "fl"], ["is", "m"], ["ion", "al"], ["si", "x"], ["pre", "par"], ["ph", "ishing"], ["sub", "divisions"], ["state", "ments"], ["indic", "ator"], ["ind", "ones"], ["123456", "78"], ["command", "s"], ["att", "ack"], ["identify", "ing"], ["broad", "cast"], ["emission", "s"], ["b", "logs"], ["c", "of"], ["s", "ending"], ["ch", "ron"], ["and", "roid"], ["ag", "ents"], ["pag", "ing"], ["13", "9"], ["bre", "a"], ["tv", "l"], ["09", "44"], ["compo", "unded"], ["pric", "ing"], ["sol", "ved"], ["cof", "fee"], ["o", "ce"], ["r", "m"], ["in", "f"], ["in", "sur"], ["at", "ten"], ["ul", "ation"], ["ne", "ural"], ["di", "rected"], ["ad", "vis"], ["mo", "us"], ["cre", "w"], ["tournam", "entid"], ["ep", "ic"], ["ish", "ed"], ["graph", "y"], ["hand", "s"], ["vis", "a"], ["individual", "s"], ["window", "s"], ["adjac", "ency"], ["insi", "ghts"], ["weap", "on"], ["s", "mo"], ["at", "ives"], ["for", "d"], ["is", "lam"], ["user", "id"], ["con", "cl"], ["be", "l"], ["20", "8"], ["em", "bed"], ["dec", "is"], ["scal", "ar"], ["snap", "shot"], ["scen", "ar"], ["commer", "ce"], ["5", "12"], ["]", "}"], ["b", "ur"], ["c", "my"], ["c", "pu"], ["n", "const"], ["u", "x"], ["w", "om"], ["fa", "re"], ["pro", "string"], ["up", "c"], ["up", "s"], ["25", "320"], ["app", "lic"], ["99", "99"], ["bl", "ur"], ["criter", "ion"], ["hy", "per"], ["250", "25320"], ["denomin", "ator"], ["elder", "berry"], ["oce", "an"], ["insur", "ance"], ["cmy", "k"], ["e", "an"], ["h", "ero"], ["l", "ab"], ["ing", "bird"], ["str", "s"], ["co", "gn"], ["retrie", "val"], ["code", "point"], ["ip", "hy"], ["cre", "ators"], ["sub", "lists"], ["pass", "en"], ["80", "80"], ["exp", "ect"], ["part", "ner"], ["chain", "s"], ["document", "ation"], ["che", "ap"], ["watch", "mode"], ["sever", "ity"], ["mock", "ingbird"], ["proble", "m"], ["guar", "dian"], ["d", "am"], ["i", "tion"], ["m", "ight"], ["w", "ave"], ["in", "vol"], ["in", "dian"], ["de", "ad"], ["de", "tic"], ["ro", "ster"], ["be", "long"], ["extrac", "tion"], ["19", "4"], ["65", "4"], ["geo", "detic"], ["cover", "age"], ["neur", "on"], ["sav", "ed"], ["veri", "fies"], ["navig", "ation"], ["expon", "ential"], ["strateg", "ies"], ["a", "de"], ["a", "ff"], ["g", "rand"], ["n", "v"], ["o", "sci"], ["t", "an"], ["re", "wards"], ["fet", "y"], ["no", "un"], ["par", "sed"], ["ll", "ator"], ["sa", "fety"], ["fic", "ations"], ["normal", "izes"], ["1111", "1111"], ["decode", "d"], ["remain", "der"], ["approxim", "ation"], ["assi", "stance"], ["plot", "ted"], ["0944", "947"], ["osci", "llator"], ["a", "use"], ["g", "iphy"], ["th", "ink"], ["tr", "u"], ["sp", "ring"], ["correspon", "ds"], ["skip", "ping"], ["incre", "ase"], ["bed", "rooms"], ["],", " ["], ["1", "30"], ["2", "12"], ["9", "00"], ["f", "an"], ["in", "es"], ["es", "g"], ["po", "ol"], ["ad", "verti"], ["search", "ing"], ["88", "8"], ["weigh", "ing"], ["vehic", "les"], ["config", "ure"], ["prefer", "ence"], ["decay", "s"], ["seg", "ments"], ["clock", "wise"], ["concl", "usion"], ["c", "ci"], ["r", "ail"], ["s", "we"], ["|", "--------"], ["in", "side"], ["de", "ath"], ["co", "ck"], ["it", "a"], ["ne", "u"], ["di", "st"], ["he", "ar"], ["est", "ate"], ["produ", "cing"], ["100", "000"], ["met", "ro"], ["go", "ld"], ["sequ", "ent"], ["ak", "es"], ["sat", "ur"], ["consum", "er"], ["tex", "as"], ["dev", "ices"], ["industr", "ies"], ["paragraph", "s"], ["import", "ant"], ["sever", "al"], ["annot", "ation"], ["interpo", "l"], ["prim", "ary"], ["8", "000"], ["j", "ar"], ["or", "ded"], ["en", "um"], ["me", "al"], ["no", "on"], ["fil", "ings"], ["gener", "ation"], ["15", "3"], ["cre", "ation"], ["rec", "orded"], ["app", "ended"], ["act", "ress"], ["evalu", "ates"], ["ath", "let"], ["medic", "ation"], ["amen", "ities"], ["b", "en"], ["b", "sc"], ["d", "rug"], ["p", "ts"], ["w", "ai"], ["the", "at"], ["ma", "ker"], ["jo", "ur"], ["not", "ation"], ["wn", "ba"], ["build", "s"], ["spe", "lling"], ["stream", "ing"], ["construct", "or"], ["ware", "house"], ["appoint", "ment"], [")", "."], ["1", "122"], ["g", "ate"], ["r", "idd"], ["w", "y"], ["ap", "ore"], ["check", "ing"], ["au", "g"], ["go", "l"], ["multi", "p"], ["sess", "ions"], ["access", "ing"], ["pagin", "ate"], ["liter", "s"], ["remain", "ing"], ["own", "er"], ["break", "down"], ["t", "api"], ["w", "ap"], ["in", "box"], ["re", "put"], ["co", "vid"], ["ren", "der"], ["check", "sum"], ["new", "line"], ["my", "ster"], ["sub", "sequent"], ["app", "are"], ["vo", "lution"], ["numer", "ator"], ["chall", "eng"], ["exer", "cis"], ["sli", "ce"], ["incide", "nt"], ["va", "ult"], ["liqu", "idity"], ["poet", "ry"], ["nu", "cle"], ["1", "15"], ["2", "40"], ["9", "01"], ["a", "o"], ["b", "ad"], ["d", "ad"], ["f", "u"], ["g", "stin"], ["re", "strict"], ["se", "q"], ["is", "in"], ["un", "known"], ["ab", "s"], ["he", "art"], ["cl", "ust"], ["par", "ty"], ["conver", "ter"], ["page", "ant"], ["bet", "ting"], ["not", "ing"], ["read", "iness"], ["inst", "all"], ["home", "less"], ["flag", "s"], ["reposit", "ories"], ["inspir", "ational"], ["gover", "n"], ["statist", "ic"], ["multip", "lication"], ["nucle", "o"], ["2", "25"], ["a", "str"], ["g", "ather"], ["h", "ate"], ["h", "ab"], ["k", "ard"], ["p", "ity"], ["er", "n"], ["de", "pen"], ["ar", "ding"], ["li", "ttle"], ["fi", "gh"], ["as", "hi"], ["val", "i"], ["be", "low"], ["20", "13"], ["per", "mission"], ["pr", "acti"], ["set", "up"], ["ser", "endi"], ["sing", "apore"], ["multi", "ples"], ["but", "ton"], ["defini", "tions"], ["77", "7"], ["boun", "ds"], ["ignor", "e"], ["purpo", "se"], ["syn", "tax"], ["gif", "s"], ["myster", "y"], ["exercis", "es"], ["kard", "ashi"], ["serendi", "pity"], ["kardashi", "an"], ["$", "$"], ["(", ")"], ["7", "20"], ["z", "il"], ["in", "vi"], ["de", "noting"], ["to", "td"], ["tion", "al"], ["qu", "ant"], ["ver", "bo"], ["he", "at"], ["find", "er"], ["language", "code"], ["ot", "t"], ["posi", "te"], ["system", "s"], ["appli", "es"], ["onom", "y"], ["sche", "me"], ["bra", "zil"], ["mix", "ed"], ["diag", "no"], ["turn", "s"], ["moun", "tain"], ["6", "75"], ["b", "urn"], ["t", "rol"], ["ro", "bo"], ["se", "l"], ["un", "es"], ["as", "p"], ["con", "ference"], ["get", "random"], ["ce", "l"], ["10", "101"], ["year", "ly"], ["new", "ly"], ["sor", "s"], ["tem", "plates"], ["eng", "age"], ["au", "d"], ["16", "7"], ["23", "456"], ["meth", "ods"], ["run", "ner"], ["cam", "era"], ["she", "in"], ["aa", "a"], ["ignor", "ed"], ["subj", "ects"], ["san", "iti"], ["tre", "at"], ["execu", "ted"], ["navig", "ations"], ["relation", "ship"], ["gol", "den"], ["k", "type"], ["l", "n"], ["n", "ature"], ["st", "on"], ["to", "ge"], ["en", "sion"], ["ar", "tw"], ["get", "ktype"], ["com", "es"], ["si", "g"], ["spec", "s"], ["sc", "rape"], ["tem", "ber"], ["sub", "net"], ["cr", "m"], ["17", "0"], ["split", "ting"], ["divis", "ors"], ["cir", "cular"], ["analyz", "ing"], ["987", "6"], ["sur", "ah"], ["structure", "d"], ["east", "ern"], ["pin", "code"], ["imple", "ment"], ["escap", "ed"], ["sep", "tember"], ["kim", "kardashian"], ["toge", "ther"], ["getktype", "for"], ["n", "ca"], ["o", "h"], ["o", "ls"], ["es", "day"], ["str", "ual"], ["ro", "unding"], ["fi", "f"], ["tr", "ig"], ["as", "ian"], ["mo", "vers"], ["can", "vas"], ["pe", "p"], ["pe", "ek"], ["16", "1"], ["19", "95"], ["men", "strual"], ["colle", "cted"], ["extension", "s"], ["capital", "ize"], ["fli", "p"], ["serial", "ized"], ["feature", "d"], ["fran", "k"], ["reput", "ation"], ["k", "ers"], ["t", "z"], ["in", "vo"], ["al", "ex"], ["or", "ge"], ["it", "ure"], ["ge", "orge"], ["get", "order"], ["ce", "lls"], ["inter", "sect"], ["30", "3"], ["identi", "ty"], ["25", "00"], ["sub", "mission"], ["tri", "al"], ["14", "9"], ["rank", "ed"], ["poli", "ce"], ["xx", "xx"], ["apply", "ing"], ["personal", "ized"], [" '.', '.',", " '.', '.',"], ["00000000", "00000000"], ["perim", "eter"], ["offer", "ing"], ["gall", "ery"], ["expon", "ent"], ["clai", "m"], ["rai", "sed"], ["satur", "day"], ["nca", "a"], ["getorder", "byid"], ["b", "g"], ["g", "ag"], ["j", "ames"], ["n", "al"], ["y", "al"], ["po", "d"], ["iv", "ity"], ["mo", "t"], ["12", "99"], ["cl", "assi"], ["pre", "p"], ["15", "9"], ["mi", "ke"], ["initi", "ate"], ["bar", "t"], ["transl", "ates"], ["server", "s"], ["complex", "ity"], ["writ", "ing"], ["consist", "s"], ["scho", "ols"], ["compreh", "ension"], ["vac", "ation"], ["lex", "ico"], ["instru", "ctions"], ["trol", "ley"], ["d", "l"], ["k", "ml"], ["n", "ds"], ["z", "ing"], ["in", "al"], ["st", "ain"], ["an", "ch"], ["ro", "ut"], ["im", "g"], ["he", "li"], ["12", "1"], ["order", "id"], ["bet", "a"], ["aver", "y"], ["than", "k"], ["cri", "tical"], ["austral", "ian"], ["pp", "n"], ["disc", "us"], ["invi", "te"], ["verbo", "se"], ["3", "0000"], ["7", "74"], ["g", "ats"], ["n", "f"], ["n", "it"], ["ro", "yal"], ["as", "signed"], ["me", "o"], ["ide", "al"], ["ho", "ok"], ["ele", "ph"], ["valid", "ator"], ["identi", "al"], ["dis", "h"], ["50", "74"], ["pass", "ing"], ["aver", "ages"], ["direct", "or"], ["nor", "m"], ["7890", "12"], ["fic", "tion"], ["exist", "ence"], ["foot", "print"], ["electric", "ity"], ["modi", "fies"], ["land", "s"], ["cach", "ed"], ["diag", "onal"], ["adjac", "ent"], ["aug", "ust"], ["gats", "by"], ["b", "ing"], ["e", "if"], ["m", "c"], ["m", "ig"], ["m", "app"], ["p", "b"], ["s", "id"], ["re", "de"], ["de", "du"], ["ur", "ations"], ["qu", "iz"], ["by", "name"], ["so", "cket"], ["pre", "match"], ["go", "ing"], ["title", "d"], ["fe", "l"], [" '", "("], ["contin", "u"], ["42", "17"], ["capital", "ization"], ["construct", "ors"], ["brow", "ser"], ["athlet", "e"], ["hab", "it"], ["vali", "string"], ["quant", "um"], ["eif", "fel"], ["f", "lower"], ["k", "om"], ["n", "z"], ["s", "low"], ["t", "ur"], ["v", "m"], ["y", "d"], ["th", "r"], ["th", "ou"], ["li", "fest"], ["ap", "es"], ["ab", "lish"], ["time", "line"], ["ir", "a"], ["om", "ial"], ["est", "ablish"], ["produ", "ce"], ["pre", "defined"], ["comm", "unities"], ["view", "s"], ["sal", "aries"], ["head", "phones"], ["indic", "ators"], ["divide", "nds"], ["prefix", "es"], ["ful", "ly"], ["mod", "ulo"], ["may", "tapi"], ["tran", "si"], ["connec", "ted"], ["monitor", "ing"], ["subtrac", "t"], ["zp", "id"], ["enh", "ance"], ["brea", "king"], ["lifest", "yle"], ["e", "cho"], ["l", "an"], ["l", "ens"], ["p", "ain"], ["t", "at"], ["ro", "cket"], ["tr", "ad"], ["bin", "omial"], ["cor", "ners"], ["after", "noon"], ["replace", "ments"], ["real", "time"], ["pas", "sed"], ["econom", "y"], ["furn", "iture"], ["carr", "ier"], ["happen", "ing"], ["depen", "den"], ["c", "ut"], ["h", "one"], ["m", "z"], ["r", "aces"], ["x", "bc"], ["lo", "st"], ["res", "ol"], ["dis", "cover"], ["mar", "s"], ["rect", "angular"], ["initial", "ize"], ["pat", "ch"], ["doc", "s"], ["contin", "ents"], ["previous", "ly"], ["foc", "using"], ["ja", "unes"], ["334", "455"], ["bec", "ause"], ["engage", "ment"], ["heli", "cop"], ["nit", "ro"], ["8", "80"], ["b", "ue"], ["g", "od"], ["i", "ll"], ["j", "fk"], ["k", "ore"], ["r", "ide"], ["it", "self"], ["un", "official"], ["res", "ist"], ["ad", "vent"], ["per", "s"], ["no", "ise"], ["iz", "on"], ["comm", "it"], ["trans", "formation"], ["trans", "liter"], ["multi", "pli"], ["work", "out"], ["abc", "d"], ["host", "s"], ["contrac", "ts"], ["serial", "izes"], ["dri", "vers"], ["aw", "s"], ["exer", "cise"], ["animal", "s"], ["mex", "ico"], ["mex", "ican"], ["enable", "d"], ["pod", "cast"], ["3", "30"], ["4", "194"], ["f", "arm"], ["k", "night"], ["m", "ma"], ["p", "ull"], ["t", "ay"], ["or", "ian"], ["es", "ome"], ["am", "i"], ["un", "covered"], ["di", "gest"], ["be", "y"], ["be", "ar"], ["can", "a"], ["iz", "er"], ["boo", "l"], ["group", "ed"], ["row", "ling"], ["tra", "des"], ["holi", "day"], ["eth", "nic"], ["cook", "ie"], ["observ", "ation"], ["aw", "esome"], ["ica", "o"], ["afr", "ican"], ["foc", "us"], ["noti", "fications"], ["hyph", "en"], ["subscrip", "tion"], ["cock", "tail"], ["nucleo", "tide"], ["4", "29"], ["7", "50"], ["b", "id"], ["c", "b"], ["u", "a"], ["to", "ps"], ["am", "s"], ["it", "ch"], ["un", "ion"], ["con", "volution"], ["no", "ve"], ["12", "78"], ["fil", "led"], ["ach", "ieve"], ["bet", "ter"], ["01", "11"], ["boo", "st"], ["team", "id"], ["web", "hook"], ["divide", "s"], ["cli", "ps"], ["44", "44"], ["dataset", "s"], ["mp", "tion"], ["section", "s"], ["..", ".."], ["transform", "ed"], ["subset", "s"], ["cro", "p"], ["material", "s"], ["ins", "ult"], ["super", "char"], ["condu", "cts"], ["priv", "acy"], ["occur", "red"], ["nc", "bi"], ["automat", "ically"], ["unis", "wap"], ["circu", "it"], ["challeng", "es"], ["treat", "ment"], ["rede", "mption"], ["a", "stro"], ["b", "ag"], ["i", "red"], ["k", "y"], ["o", "id"], ["r", "to"], ["v", "end"], ["th", "inking"], ["the", "mes"], ["ti", "ps"], ["ti", "rto"], ["ch", "em"], ["ber", "t"], ["pl", "ant"], ["do", "ck"], ["om", "i"], ["play", "ing"], ["go", "v"], ["limit", "ing"], ["gr", "ay"], ["gu", "res"], ["bal", "anced"], ["mut", "ual"], ["does", "n"], ["bb", "c"], ["fav", "icon"], ["categor", "ization"], ["engineer", "ing"], ["conce", "pts"], ["conn", "ect"], ["produc", "tid"], [" '.", "'"], ["theat", "ers"], ["kom", "pas"], ["dock", "er"], ["1", "78"], ["h", "on"], ["i", "lity"], ["o", "ck"], ["p", "added"], ["s", "sing"], ["w", "is"], ["cal", "c"], ["con", "tr"], ["get", "user"], ["ie", "f"], ["mo", "on"], ["ther", "ock"], ["match", "id"], ["car", "rot"], ["19", "84"], ["season", "al"], ["men", "ted"], ["ero", "on"], ["stream", "s"], ["ba", "by"], ["cam", "eroon"], ["shuff", "led"], ["techn", "i"], ["premi", "um"], ["altern", "ative"], ["resist", "ivity"], ["3", "50"], ["8", "05"], ["b", "la"], ["f", "ans"], ["s", "in"], ["s", "op"], ["x", "or"], ["or", "well"], ["re", "vis"], ["str", "ide"], ["con", "tri"], ["con", "test"], ["ver", "b"], ["cl", "ar"], ["country", "code"], ["000", "2"], ["prof", "ess"], ["24", "68"], ["man", "aging"], ["32", "1"], ["clo", "sing"], ["show", "ing"], ["site", "id"], ["chapter", "s"], ["friend", "ly"], ["employ", "ment"], ["pip", "e"], ["1", "40"], ["2", "20"], ["a", "xy"], ["f", "m"], ["m", "as"], ["p", "ear"], ["t", "le"], ["ul", "tim"], ["fi", "at"], ["ma", "ze"], ["ld", "u"], ["ir", "on"], ["min", "us"], ["cre", "ating"], ["trans", "mission"], ["factor", "ize"], ["comput", "ing"], ["exten", "ded"], ["four", "th"], ["consum", "ed"], ["suit", "able"], ["encryp", "t"], ["further", "more"], ["advis", "ories"], ["cana", "dian"], ["\"", ".\","], ["7", "65"], ["c", "ra"], ["g", "i"], ["h", "un"], ["j", "v"], ["n", "utri"], ["s", "le"], ["in", "v"], ["in", "fin"], ["re", "on"], ["li", "via"], ["tw", "ice"], ["sho", "wer"], ["post", "ings"], ["pat", "reon"], ["des", "sert"], ["vol", "ts"], ["bre", "wer"], ["track", "er"], ["na", "ics"], ["sof", "a"], ["paren", "tal"], ["smart", "phone"], ["bri", "ties"], ["accur", "ate"], ["cele", "brities"], ["neigh", "bor"], ["peek", "domain"], ["774", "9"], ["helicop", "ter"], ["tay", "lor"], ["superchar", "gers"], ["c", "ad"], ["f", "g"], ["t", "ac"], ["at", "temp"], ["li", "an"], ["ent", "y"], ["sp", "el"], ["arch", "ive"], ["search", "term"], ["can", "al"], ["tw", "enty"], ["specific", "ation"], ["25", "8"], ["av", "g"], ["jo", "urn"], ["lu", "x"], ["ta", "king"], ["stand", "ardi"], ["some", "one"], ["token", "ize"], ["bon", "d"], ["send", "er"], ["pas", "cal"], ["ref", "le"], ["strain", "s"], ["prote", "in"], ["satis", "fy"], ["gir", "l"], ["eleph", "ant"], ["wis", "dom"], ["u", "um"], ["or", "ient"], ["le", "e"], ["le", "af"], ["op", "port"], ["am", "ent"], ["user", "agent"], ["ed", "ding"], ["lo", "op"], ["10", "79"], ["fil", "ing"], ["mi", "me"], ["por", "tu"], ["trans", "it"], ["week", "end"], ["indic", "ate"], ["wo", "od"], ["flu", "x"], ["manufact", "uring"], ["zi", "lian"], ["bra", "zilian"], ["puzz", "le"], ["vac", "uum"], ["aggreg", "ated"], ["indent", "ation"], ["appare", "nt"], ["figh", "ter"], ["ultim", "ate"], ["orient", "ation"], ["2", "00000"], ["e", "ve"], ["v", "h"], ["at", "tem"], ["ho", "mo"], ["do", "s"], ["gro", "ssing"], ["match", "ed"], ["oun", "ce"], ["follow", "er"], ["vo", "lat"], ["stand", "ards"], ["local", "ize"], ["exp", "ired"], ["ms", "g"], ["pri", "or"], ["pub", "lication"], ["hash", "es"], ["sl", "ope"], ["concaten", "ating"], ["prom", "pt"], ["deli", "ver"], ["pan", "ama"], ["decis", "ion"], ["nv", "da"], ["ethnic", "ity"], ["contri", "bu"], ["attem", "pt"], ["4", "01"], ["c", "um"], ["c", "ba"], ["g", "pu"], ["p", "kl"], ["q", "p"], ["v", "io"], ["ch", "ri"], ["is", "s"], ["di", "se"], ["10", "7"], ["10", "9"], ["ag", "ed"], ["cy", "ber"], ["interest", "s"], ["456", "78"], ["200", "5"], ["men", "tions"], ["pri", "se"], ["flu", "ctuation"], ["categor", "ized"], ["append", "s"], ["atom", "s"], ["speak", "er"], ["d", "j"], ["d", "id"], ["d", "ers"], ["g", "reg"], ["s", "co"], ["z", "en"], ["on", "ia"], ["an", "im"], ["con", "ve"], ["api", "key"], ["ab", "n"], ["im", "bue"], ["mo", "le"], ["ip", "hone"], ["out", "come"], ["char", "ts"], ["hi", "king"], ["mon", "ica"], ["world", "wide"], ["king", "dom"], ["br", "id"], ["activ", "ation"], ["bre", "ach"], ["acceler", "ates"], [" \"", "."], ["provid", "ers"], ["dro", "p"], ["kin", "i"], ["wild", "card"], ["inspec", "tion"], ["wom", "en"], ["tru", "th"], ["clust", "er"], ["getktypefor", "num"], ["advent", "ure"], ["hon", "da"], ["1079", "55"], ["4", "40"], ["a", "ks"], ["h", "sn"], ["n", "r"], ["o", "th"], ["er", "an"], ["si", "zed"], ["per", "page"], ["we", "ed"], ["ho", "od"], ["can", "cer"], ["pe", "tit"], ["inter", "mediate"], ["30", "2"], ["identi", "cal"], ["desc", "ri"], ["200", "1"], ["net", "works"], ["oper", "ational"], ["hum", "or"], ["move", "ment"], ["she", "eran"], ["38", "3"], ["depart", "ments"], ["inser", "ted"], ["moder", "n"], ["wal", "k"], ["indones", "ia"], ["ridd", "les"], ["burn", "ed"], ["attemp", "ts"], ["k", "ar"], ["p", "ine"], ["w", "ish"], ["x", "g"], ["y", "og"], ["}", "}"], ["al", "location"], ["at", "ory"], ["cal", "ed"], ["ad", "am"], ["bo", "ttle"], ["ret", "we"], ["pa", "sta"], ["use", "ful"], ["exp", "ense"], ["work", "ed"], ["56", "789"], ["ves", "sel"], ["tre", "es"], ["regist", "er"], ["dir", "ty"], ["europe", "an"], ["earth", "qu"], ["transpo", "se"], ["assum", "ing"], ["volat", "ility"], ["chri", "st"], ["h", "u"], ["j", "az"], ["s", "cope"], ["x", "press"], ["th", "us"], ["or", "ant"], ["de", "lay"], ["en", "ess"], ["ch", "rom"], ["ch", "anged"], ["ur", "s"], ["me", "as"], ["sp", "ar"], ["ne", "ther"], ["com", "position"], ["ho", "ly"], ["ob", "ao"], ["su", "stain"], ["file", "path"], ["air", "lines"], ["iz", "able"], ["ta", "obao"], ["igh", "ts"], ["view", "ed"], ["br", "ief"], ["allow", "ing"], ["vari", "ance"], ["combin", "es"], ["host", "name"], ["comple", "ment"], ["recur", "sion"], ["guest", "s"], ["lead", "ership"], ["dr", "iving"], ["delet", "ed"], ["0001", "667"], ["encryp", "tion"], ["emo", "ji"], ["whe", "el"], ["dedu", "ctions"], ["greg", "orian"], ["nether", "lands"], ["b", "az"], ["b", "box"], ["e", "pa"], ["e", "lon"], ["f", "ar"], ["g", "ent"], ["h", "und"], ["p", "qr"], ["t", "l"], ["w", "inter"], ["{", "}"], ["th", "h"], ["on", "ions"], ["an", "o"], ["ti", "ent"], ["id", "a"], ["ur", "an"], ["sp", "am"], ["com", "petit"], ["po", "se"], ["pl", "a"], ["can", "not"], ["out", "do"], ["dis", "co"], ["jo", "ins"], ["qr", "t"], ["men", "tion"], ["123456", "7"], ["lot", "to"], ["war", "ning"], ["audi", "ence"], ["rece", "ita"], ["sim", "ples"], ["gar", "den"], ["ni", "ke"], ["gal", "axy"], ["motiv", "ation"], ["mad", "am"], ["clai", "ms"], ["\n  ", " "], ["transport", "ation"], ["pit", "stop"], ["pep", "pers"], ["conve", "x"], ["4", "22"], ["k", "r"], ["m", "w"], ["v", "otes"], ["ar", "c"], ["ch", "os"], ["te", "ach"], ["is", "bn"], ["fi", "gures"], ["ac", "qu"], ["00", "4"], ["val", "orant"], ["be", "hav"], ["ip", "v"], ["cl", "in"], ["sc", "ape"], ["ci", "als"], ["por", "ted"], ["que", "ens"], ["second", "ary"], ["analy", "tics"], ["fr", "id"], ["author", "s"], ["high", "er"], ["was", "h"], ["finan", "cials"], ["prov", "ed"], ["organ", "ize"], ["ns", "fw"], ["moder", "ate"], ["partic", "le"], ["influen", "cer"], ["778", "8"], ["slash", "es"], ["trun", "cate"], ["effective", "ly"], ["dead", "line"], ["1299", "4"], ["sop", "hi"], [" \".", "\""], ["convex", "ity"], ["chos", "en"], [" ", "|"], ["1", "45"], ["e", "b"], ["h", "d"], ["in", "ing"], ["in", "active"], ["al", "ie"], ["en", "thus"], ["le", "gal"], ["ce", "il"], ["dat", "um"], ["ide", "n"], ["star", "ted"], ["15", "000"], ["day", "lights"], ["av", "i"], ["16", "00"], ["16", "88"], ["web", "sites"], ["local", "ity"], ["vi", "meo"], ["23", "9"], ["center", "ed"], ["74", "8"], ["ven", "ues"], ["kilo", "meter"], ["share", "d"], ["industr", "ial"], ["mag", "ne"], ["finger", "prints"], ["hierarch", "y"], ["prepar", "ing"], ["nitro", "us"], ["getuser", "byname"], ["jaz", "z"], ["alie", "xpress"], ["#", "#"], ["6", "0000"], ["c", "ine"], ["f", "its"], ["i", "ted"], ["m", "un"], ["m", "no"], ["o", "as"], ["s", "qrt"], ["co", "uple"], ["ed", "it"], ["ac", "r"], ["00", "5"], ["ex", "hi"], ["coun", "ty"], ["ag", "on"], ["cl", "amp"], ["45", "3"], ["mm", "ss"], ["cr", "u"], ["456", "7"], ["ded", "up"], ["mus", "k"], ["mod", "ules"], ["config", "urations"], ["chat", "bot"], ["success", "ful"], ["sav", "es"], ["buy", "ing"], ["bm", "w"], ["club", "s"], ["champion", "ship"], ["shorten", "ed"], ["lexico", "graph"], ["thr", "ones"], ["thou", "ghts"], ["caled", "onia"], ["chrom", "o"], [")", ","], ["1", "90"], ["6", "85"], ["8", "10"], ["a", "ut"], ["h", "ack"], ["m", "g"], ["m", "ph"], ["y", "t"], ["en", "o"], ["ar", "bit"], ["et", "te"], ["co", "ls"], ["li", "ver"], ["is", "sors"], ["am", "ino"], ["ap", "so"], ["ve", "ic"], ["inte", "l"], ["ac", "counts"], ["me", "mes"], ["di", "ac"], ["bo", "he"], ["sc", "issors"], ["inter", "nal"], ["mi", "an"], ["call", "ing"], ["av", "en"], ["ia", "st"], ["br", "anch"], ["exp", "ensive"], ["ca", "fe"], ["plan", "ets"], ["track", "mania"], ["29", "7"], ["lap", "tops"], ["stop", "words"], ["bor", "ed"], ["copy", "right"], ["1111", "1"], ["fund", "ament"], ["sensi", "tivity"], ["flix", "bus"], ["expl", "ore"], ["encryp", "ted"], ["ni", "ger"], ["atom", "ic"], ["align", "ment"], ["sell", "er"], ["aster", "is"], ["scienti", "fic"], ["rh", "apso"], ["constrain", "ts"], ["revis", "ions"], ["opport", "unities"], ["arbit", "r"], ["bohe", "mian"], ["rhapso", "dy"], ["8", "64"], ["d", "n"], ["e", "lig"], ["f", "at"], ["i", "k"], ["q", "i"], ["r", "g"], ["en", "closed"], ["ch", "en"], ["et", "y"], ["ro", "py"], ["li", "ving"], ["get", "pet"], ["po", "lar"], ["12", "4"], ["inter", "ior"], ["mon", "ic"], ["16", "437"], ["vo", "te"], ["19", "99"], ["fr", "im"], ["pay", "ments"], ["cap", "tion"], ["way", "back"], ["88", "88"], ["gu", "id"], ["forecast", "s"], ["numer", "al"], ["refer", "er"], ["exce", "ed"], ["ton", "ight"], ["shif", "ts"], ["mag", "ic"], ["incide", "nts"], ["hyph", "ens"], ["inn", "ings"], ["subst", "itu"], ["220228548", "41"], ["inno", "vation"], ["dist", "ances"], ["chem", "ical"], ["getpet", "byid"], ["7", "0000"], ["7", "18"], ["d", "um"], ["e", "ma"], ["j", "s"], ["j", "y"], ["o", "hl"], ["p", "ret"], ["r", "ab"], ["s", "af"], ["y", "am"], ["th", "ous"], ["or", "ks"], ["re", "name"], ["re", "cogn"], ["fi", "g"], ["ho", "b"], ["inter", "ce"], ["la", "x"], ["call", "er"], ["lat", "er"], ["app", "ending"], ["19", "20"], ["investment", "s"], ["initial", "s"], ["back", "up"], ["int", "ro"], ["33", "8"], ["bat", "ches"], ["23", "45"], ["abc", "de"], ["poli", "ti"], ["evalu", "ation"], ["sun", "set"], ["restric", "ts"], ["trun", "c"], ["inver", "t"], ["cab", "in"], ["artw", "orks"], ["2468", "10"], ["behav", "ior"], ["ohl", "c"], ["thous", "and"], ["1", "100"], ["b", "f"], ["c", "z"], ["e", "id"], ["g", "g"], ["j", "tab"], ["l", "unch"], ["q", "n"], ["q", "uran"], ["al", "ty"], ["al", "ways"], ["ti", "des"], ["ti", "ally"], ["list", "ic"], ["get", "news"], ["form", "s"], ["po", "wers"], ["if", "r"], ["ig", "tv"], ["pe", "are"], ["202", "20"], ["pre", "view"], ["sto", "ch"], ["email", "validation"], ["identifi", "es"], ["geo", "json"], ["load", "ing"], ["mu", "jtab"], ["poten", "tially"], ["sw", "itch"], ["peti", "d"], ["tab", "let"], ["milli", "on"], ["care", "er"], ["abcdef", "ghi"], ["consult", "a"], ["conce", "pt"], ["compi", "led"], ["fai", "ls"], ["nfl", "x"], ["enthus", "iast"], ["mujtab", "ah"], ["\n", "```"], ["b", "ab"], ["f", "on"], ["g", "k"], ["i", "ke"], ["n", "ed"], ["n", "ai"], ["w", "sh"], ["on", "to"], ["al", "le"], ["str", "add"], ["co", "up"], ["op", "posite"], ["as", "se"], ["me", "l"], ["be", "au"], ["ad", "ult"], ["per", "pet"], ["calcul", "ations"], ["100", "2"], ["ph", "p"], ["lon", "ger"], ["sym", "metric"], ["sho", "es"], ["cent", "roid"], ["post", "codes"], ["posi", "tives"], ["region", "al"], ["19", "68"], ["fr", "y"], ["ree", "ls"], ["contin", "uation"], ["open", "ings"], ["sha", "wsh"], ["gender", "ize"], ["fore", "ground"], ["earn", "s"], ["screen", "ing"], ["utili", "zing"], ["inspir", "ation"], ["cand", "lest"], ["statist", "ical"], ["won", "der"], ["blo", "od"], ["wai", "st"], ["nove", "mber"], ["pipe", "line"], ["shower", "thoughts"], ["journ", "al"], ["interce", "pt"], ["stradd", "le"], ["shawsh", "ank"], ["b", "es"], ["b", "ench"], ["d", "t"], ["d", "ance"], ["i", "ents"], ["k", "b"], ["k", "ings"], ["p", "ac"], ["r", "or"], ["s", "it"], ["de", "e"], ["ti", "re"], ["ti", "po"], ["ti", "sh"], ["cl", "ing"], ["pe", "er"], ["cy", "cling"], ["mon", "day"], ["line", "ups"], ["season", "id"], ["22", "222"], ["simul", "ator"], ["travel", "ing"], ["compo", "sed"], ["cd", "n"], ["geocode", "d"], ["pad", "s"], ["band", "s"], ["eg", "gs"], ["cele", "br"], ["govern", "ment"], ["veic", "ulo"], ["hob", "by"], ["politi", "ci"], ["6", "000"], ["b", "h"], ["b", "x"], ["d", "its"], ["h", "ant"], ["m", "ash"], ["o", "x"], ["o", "ct"], ["t", "tr"], ["v", "ec"], ["us", "ual"], ["for", "t"], ["and", "a"], ["le", "g"], ["op", "qr"], ["qu", "es"], ["di", "ver"], ["fin", "ished"], ["up", "vote"], ["format", "ting"], ["char", "lid"], ["sh", "edding"], ["cre", "dits"], ["que", "en"], ["dis", "k"], ["read", "ings"], ["info", "box"], ["than", "ks"], ["lock", "ed"], ["bro", "ther"], ["vari", "ation"], ["foo", "ter"], ["organ", "izing"], ["hh", "mmss"], ["compo", "se"], ["sun", "g"], ["inser", "ts"], ["stro", "ke"], ["keep", "ing"], ["administr", "ator"], ["sam", "sung"], ["rai", "se"], ["ug", "anda"], ["jup", "iter"], ["0111", "161"], ["charlid", "ame"], ["5", "11"], ["9", "63"], ["k", "line"], ["re", "po"], ["ti", "ful"], ["user", "names"], ["me", "ans"], ["by", "bit"], ["pl", "ans"], ["pl", "ural"], ["10", "1968"], ["so", "il"], ["do", "l"], ["ren", "ts"], ["tai", "ls"], ["min", "or"], ["sh", "apes"], ["bu", "zz"], ["amoun", "ts"], ["man", "ip"], ["differ", "ences"], ["neg", "atives"], ["show", "times"], ["pack", "s"], ["tor", "rents"], ["77", "6"], ["ba", "th"], ["purch", "ases"], ["cache", "bypass"], ["constru", "ction"], ["particip", "ant"], ["alphabe", "tic"], ["abbre", "vi"], ["zp", "k"], ["noti", "fication"], ["rad", "ical"], ["finger", "print"], ["scenar", "io"], ["passen", "gers"], ["trig", "ger"], ["yog", "a"], ["meas", "ures"], ["beau", "tiful"], ["candlest", "ick"], ["101968", "65"], ["6", "789"], ["g", "ad"], ["h", "are"], ["o", "il"], ["p", "k"], ["r", "ation"], ["re", "tire"], ["ch", "rome"], ["ur", "u"], ["as", "os"], ["ce", "p"], ["20", "12"], ["arch", "ived"], ["em", "ma"], ["tw", "ttr"], ["la", "unch"], ["dis", "covered"], ["11", "3"], ["11", "12"], ["16", "4"], ["24", "8"], ["token", "ized"], ["33", "33"], ["mod", "ul"], ["dete", "cted"], ["tab", "les"], ["zi", "lla"], ["techn", "ic"], ["chin", "a"], ["improve", "ment"], ["suppli", "ed"], ["neu", "tr"], ["jour", "ney"], ["mig", "ration"], ["multipli", "ed"], ["sle", "ep"], ["cine", "ma"], ["5", "37"], ["\\", "\""], ["\\", "\\"], ["c", "x"], ["c", "idr"], ["f", "d"], ["f", "re"], ["f", "name"], ["h", "ide"], ["i", "po"], ["k", "ind"], ["th", "re"], ["th", "ai"], ["se", "att"], ["ur", "y"], ["com", "par"], ["pl", "ing"], ["20", "4"], ["20", "14"], ["pr", "ai"], ["pres", "sion"], ["inter", "action"], ["45", "0"], ["fun", "ds"], ["match", "schedules"], ["65", "5"], ["99", "5"], ["mer", "ged"], ["suggest", "ed"], ["pi", "ed"], ["commun", "e"], ["old", "er"], ["verti", "cal"], ["land", "scape"], ["bri", "tish"], ["50000", "0"], ["veri", "fier"], ["swap", "s"], ["deep", "fry"], ["cand", "id"], ["scienti", "st"], ["applic", "ations"], ["swe", "et"], ["techni", "ques"], ["competit", "or"], ["cru", "cial"], ["fon", "ts"], ["seatt", "le"], ["4", "80"], ["f", "ci"], ["g", "p"], ["l", "cir"], ["n", "h"], ["p", "f"], ["q", "k"], ["s", "name"], ["t", "unis"], ["y", "r"], ["al", "a"], ["ar", "ag"], ["am", "ation"], ["ur", "ban"], ["00", "6"], ["con", "ven"], ["di", "stric"], ["by", "e"], ["10", "6"], ["do", "ing"], ["gen", "cy"], ["su", "is"], ["fun", "ding"], ["price", "line"], ["ri", "o"], ["17", "3"], ["allow", "ances"], ["77", "78"], ["os", "m"], ["pm", "bm"], ["excl", "amation"], ["super", "fund"], ["dri", "bb"], ["begin", "ner"], ["good", "bye"], ["overview", "s"], ["join", "ed"], ["kno", "ts"], ["cour", "ses"], ["wrap", "ped"], ["sil", "ver"], ["broad", "band"], ["rad", "ar"], ["gt", "in"], ["certi", "fication"], ["nar", "row"], ["stay", "s"], ["expect", "ancy"], ["wy", "re"], ["mapp", "ed"], ["profess", "ional"], ["celebr", "ity"], ["distric", "ts"], ["6", "30"], ["d", "re"], ["d", "ut"], ["g", "w"], ["j", "d"], ["l", "lo"], ["}", "\")"], ["th", "ri"], ["st", "able"], ["ing", "ton"], ["of", "ten"], ["ro", "s"], ["se", "ven"], ["fi", "ers"], ["lo", "ot"], ["con", "so"], ["con", "centr"], ["pro", "por"], ["too", "k"], ["ts", "n"], ["20", "1"], ["mo", "zilla"], ["sc", "ri"], ["ra", "ster"], ["gro", "cer"], ["25", "9"], ["log", "arith"], ["vo", "us"], ["19", "639"], ["fr", "ont"], ["mal", "ay"], ["bill", "ing"], ["class", "ic"], ["pi", "er"], ["tax", "onomy"], ["44", "19639"], ["zo", "diac"], ["tv", "db"], ["hum", "idity"], ["pur", "ple"], ["she", "ll"], ["los", "ers"], ["occur", "s"], ["abcdef", "g"], ["fall", "back"], ["interpo", "late"], ["dc", "f"], ["poll", "ut"], ["submit", "ted"], ["certi", "fic"], ["attach", "ment"], ["], [", "\".\","], ["nutri", "tion"], ["acqu", "is"], [" \".\"", "], [\".\","], ["4419639", "7"], ["7", "000"], ["]", "."], ["b", "un"], ["g", "c"], ["g", "uru"], ["h", "ir"], ["h", "ref"], ["i", "j"], ["n", "ac"], ["y", "ts"], ["z", "q"], ["re", "deploy"], ["res", "idential"], ["get", "all"], ["ex", "po"], ["ut", "en"], ["he", "ure"], ["no", "m"], ["do", "min"], ["sh", "akes"], ["inter", "actions"], ["pre", "d"], ["sub", "title"], ["cr", "ip"], ["off", "ensive"], ["19", "00"], ["sch", "em"], ["custom", "izable"], ["br", "aces"], ["head", "ing"], ["down", "town"], ["down", "loaded"], ["mis", "m"], ["gam", "bit"], ["opti", "mism"], ["plann", "er"], ["modi", "fiers"], ["clean", "ed"], ["algor", "ith"], ["scen", "e"], ["escap", "es"], ["bul", "lish"], ["redu", "ce"], ["render", "ing"], ["practi", "ces"], ["dise", "ase"], ["hund", "red"], ["hare", "m"], ["heure", "ux"], ["shakes", "peare"], ["`", "."], ["c", "in"], ["c", "en"], ["c", "ada"], ["h", "ou"], ["s", "so"], ["an", "si"], ["ul", "ative"], ["ch", "air"], ["te", "ma"], ["co", "pied"], ["get", "latest"], ["ho", "uses"], ["up", "string"], ["15", "5"], ["comp", "act"], ["tu", "esday"], ["invest", "ing"], ["18", "00"], ["az", "i"], ["17", "675"], ["pi", "k"], ["amaz", "ing"], ["56", "7"], ["98765", "4"], ["wr", "iter"], ["enter", "prise"], [" \".\", \".\",", " \".\", \".\","], ["rain", "forest"], ["automat", "ic"], ["nic", "arag"], ["simpli", "fied"], ["interpol", "ation"], ["vend", "or"], ["cum", "ulative"], ["spar", "se"], ["magne", "tic"], ["hack", "er"], ["cada", "stro"], ["getlatest", "by"], ["a", "ke"], ["a", "we"], ["b", "ren"], ["b", "iden"], ["g", "v"], ["g", "ps"], ["m", "ne"], ["r", "p"], ["s", "ic"], ["v", "ity"], ["v", "ant"], ["x", "ls"], ["al", "ive"], ["re", "lig"], ["re", "posts"], ["de", "ci"], ["le", "o"], ["sp", "a"], ["sp", "on"], ["ad", "s"], ["20", "48"], ["ab", "or"], ["im", "mediate"], ["ly", "tics"], ["date", "string"], ["ren", "contr"], ["pres", "ence"], ["sh", "ar"], ["uni", "form"], ["bu", "ff"], ["cr", "ui"], ["19", "5"], ["line", "count"], ["pat", "ents"], ["determin", "ed"], ["22", "22"], ["gr", "an"], ["defin", "es"], ["mean", "while"], ["gu", "ese"], ["oper", "ators"], ["quo", "tient"], ["ste", "llar"], ["prime", "ira"], ["trip", "le"], ["ali", "ases"], ["dr", "ink"], ["dr", "inking"], ["dies", "el"], ["'.',", "'.',"], ["geomet", "ric"], ["gover", "lytics"], ["aff", "ect"], ["saniti", "ze"], ["transi", "tion"], ["portu", "guese"], ["intro", "du"], ["perpet", "ual"], ["retire", "ment"], ["mne", "monic"], ["xls", "x"], ["rencontr", "er"], ["0", "987654321"], ["8", "20"], ["8", "13"], ["<", "/"], ["f", "la"], ["f", "ancy"], ["i", "bm"], ["n", "p"], ["o", "w"], ["p", "aces"], ["u", "gin"], ["久", "水"], ["海", "久水"], ["an", "noun"], ["to", "il"], ["li", "b"], ["op", "la"], ["fa", "ster"], ["id", "x"], ["ap", "s"], ["res", "id"], ["me", "mo"], ["be", "at"], ["pl", "ugin"], ["15", "1"], ["max", "id"], ["25", "92"], ["reg", "ul"], ["look", "s"], ["tiv", "eness"], ["ub", "l"], ["fl", "ame"], ["local", "host"], ["65", "98"], ["zo", "opla"], ["74", "239"], ["estim", "ation"], ["\",", " \""], ["flu", "ent"], ["mac", "d"], ["hor", "ror"], ["trim", "s"], ["land", "ing"], ["plac", "ed"], ["38", "95"], ["capital", "ized"], ["authenti", "cate"], ["categor", "ical"], ["big", "gest"], ["eco", "index"], ["compres", "sed"], ["713", "74239"], ["astr", "onom"], ["hate", "oas"], ["permission", "s"], ["dribb", "ble"], ["nicarag", "ua"], ["bren", "toil"], ["海久水", "瓶"], ["2592", "302"], ["6598", "2592302"], ["71374239", "65982592302"], ["\"", "."], ["2", "24"], ["2", "33"], ["7", "29"], ["g", "d"], ["g", "st"], ["h", "g"], ["v", "an"], ["è", "s"], ["en", "counter"], ["ch", "ester"], ["str", "and"], ["se", "dol"], ["num", "ero"], ["ur", "gent"], ["tr", "ès"], ["me", "stic"], ["qu", "ater"], ["ad", "os"], ["spec", "t"], ["ct", "ag"], ["do", "mestic"], ["min", "imal"], ["day", "light"], ["app", "token"], ["video", "id"], ["has", "c"], ["ot", "p"], ["dd", "thh"], ["05", "80"], ["but", "ter"], ["diff", "usion"], ["fl", "ames"], ["yp", "t"], ["gr", "ace"], ["tax", "i"], ["display", "ing"], ["cm", "d"], ["scre", "ener"], ["divid", "ing"], ["evalu", "ated"], ["dash", "es"], ["wall", "ets"], ["uti", "lity"], ["import", "ance"], ["particular", "ly"], ["mid", "night"], ["tm", "db"], ["eg", "ypt"], ["wa", "it"], ["explor", "ation"], ["trad", "er"], ["422", "82"], ["810", "21"], ["quater", "n"], [" ", "-"], ["4", "27"], ["5", "50"], ["b", "ors"], ["c", "ip"], ["d", "st"], ["h", "ul"], ["h", "id"], ["j", "ack"], ["k", "w"], ["l", "ag"], ["l", "enses"], ["q", "b"], ["q", "c"], ["s", "ma"], ["t", "ut"], ["y", "en"], ["re", "li"], ["for", "war"], ["fi", "re"], ["ai", "m"], ["po", "lic"], ["bo", "lt"], ["10", "8"], ["ct", "or"], ["do", "ctor"], ["cy", "lin"], ["15", "2"], ["able", "d"], ["order", "by"], ["50", "5"], ["jo", "y"], ["13", "7"], ["equ", "als"], ["next", "maxid"], ["cle", "ans"], ["light", "ing"], ["65", "4321"], ["clo", "thing"], ["struct", "ures"], ["cap", "s"], ["way", "fair"], ["performance", "id"], ["mark", "ers"], ["traver", "sal"], ["connec", "tions"], ["support", "ing"], ["own", "ership"], ["assign", "ment"], ["mag", "ical"], ["cult", "ure"], ["approxim", "ate"], ["univer", "sal"], ["autom", "ate"], ["summar", "ize"], ["tele", "gram"], ["suppli", "er"], ["fai", "led"], ["diagno", "sis"], ["holy", "day"], ["elon", "musk"], ["frid", "ay"], ["wash", "ington"], ["opqr", "stu"], ["grocer", "ies"], ["hou", "ston"], ["awe", "me"], ["9", "13"], ["b", "t"], ["g", "ates"], ["i", "ans"], ["s", "lo"], ["th", "under"], ["to", "e"], ["ar", "ace"], ["it", "ers"], ["sp", "ent"], ["sp", "read"], ["ou", "ts"], ["ag", "encies"], ["ear", "li"], ["gen", "o"], ["ll", "er"], ["sh", "ield"], ["hi", "lls"], ["tit", "an"], ["reg", "arding"], ["color", "ado"], ["40", "7"], ["ast", "ic"], ["14", "00"], ["el", "m"], ["85", "6"], ["tag", "ged"], ["wo", "eid"], ["oper", "ating"], ["37", "33"], ["bas", "il"], ["geograph", "y"], ["sof", "i"], ["ste", "el"], ["select", "or"], ["cub", "ic"], ["securities", "code"], [" '.', '.',", " '.',"], ["consist", "ent"], ["optimi", "zation"], ["remain", "s"], ["alphabetical", "ly"], ["inno", "v"], ["applic", "able"], ["habit", "at"], ["kore", "an"], ["imbue", "ments"], ["dut", "ch"], ["nac", "ional"], ["hid", "den"], ["2", "30"], ["4", "18"], ["a", "ab"], ["d", "ram"], ["h", "ope"], ["j", "ud"], ["m", "ama"], ["n", "au"], ["o", "qn"], ["r", "ice"], ["th", "or"], ["st", "y"], ["co", "t"], ["ro", "i"], ["ap", "proved"], ["number", "of"], ["00", "7"], ["di", "ab"], ["dat", "ing"], ["20", "11"], ["per", "t"], ["im", "pression"], ["ret", "ail"], ["col", "ons"], ["cre", "ative"], ["av", "es"], ["av", "oid"], ["sho", "ts"], ["tok", "api"], ["gre", "ek"], ["sign", "end"], ["sign", "start"], ["view", "box"], ["man", "chester"], ["60", "805"], ["17", "455"], ["gh", "ana"], ["88", "65"], ["ima", "g"], ["associ", "ation"], ["tc", "p"], ["def", "ense"], ["integr", "ity"], ["glo", "b"], ["ny", "times"], ["1234567890", "12"], ["milli", "ons"], ["39", "208"], ["dri", "ver"], ["pas", "sport"], ["according", "ly"], ["syn", "the"], ["sli", "ding"], ["racecar", "ds"], ["prote", "ction"], ["deploy", "ment"], ["sam", "pling"], ["commer", "cial"], ["disc", "ord"], ["nar", "rows"], ["scenar", "ios"], ["continu", "ous"], ["dependen", "cies"], ["sophi", "a"], ["chromo", "some"], ["zpk", "bl"], ["pollut", "ants"], ["acquis", "ition"], ["dram", "a"], ["nau", "tical"], ["diab", "lo"], ["4", "17675"], ["b", "ly"], ["e", "ating"], ["g", "m"], ["o", "lla"], ["p", "id"], ["s", "ke"], ["w", "m"], ["st", "one"], ["re", "j"], ["of", "ac"], ["ar", "ab"], ["bo", "ards"], ["ide", "nt"], ["pr", "ag"], ["pe", "ace"], ["ach", "u"], ["sc", "rab"], ["contain", "er"], ["ph", "ar"], ["air", "bus"], ["78", "0"], ["coord", "s"], ["cor", "e"], ["cor", "s"], ["cor", "on"], ["cor", "olla"], ["gre", "ed"], ["inve", "stor"], ["05", "4"], ["non", "stop"], ["24", "00"], ["75", "5"], ["fl", "or"], ["17", "27"], ["cli", "p"], ["bar", "king"], ["detail", "ing"], ["ony", "m"], ["comple", "tion"], ["stop", "s"], ["multiply", "ing"], ["categor", "izes"], ["matr", "ic"], ["mang", "o"], ["ref", "resh"], ["employ", "er"], ["jkl", "mn"], ["neigh", "bors"], ["subst", "it"], ["vw", "xyz"], ["subscrip", "tions"], ["220228548", "417675"], ["hierarch", "ical"], ["fif", "th"], ["bey", "bla"], ["teach", "er"], ["concentr", "ation"], ["expo", "sure"], ["pik", "achu"], ["tut", "or"], ["forwar", "ding"], ["polic", "ies"], ["scrab", "ble"], ["220228548417675", "1"], ["6", "19"], ["a", "id"], ["h", "q"], ["i", "tive"], ["m", "ation"], ["m", "umb"], ["u", "j"], ["v", "r"], ["th", "read"], ["en", "v"], ["sp", "ans"], ["ou", "gh"], ["valu", "ed"], ["bo", "y"], ["bo", "arding"], ["12", "12"], ["jo", "int"], ["log", "ger"], ["over", "ride"], ["ist", "ic"], ["scor", "ing"], ["75", "00"], ["br", "on"], ["ify", "ing"], ["cu", "da"], ["wid", "get"], ["789", "01"], ["neg", "ate"], ["ima", "gin"], ["gam", "er"], ["run", "s"], ["rgb", "a"], ["dynam", "ically"], ["normal", "ization"], ["resp", "ect"], ["excl", "usive"], ["faci", "lit"], ["phys", "ics"], ["vowe", "l"], ["ratio", "s"], ["fill", "er"], ["experiment", "al"], ["firm", "ware"], ["coll", "abor"], ["qual", "ities"], ["concer", "t"], ["passen", "ger"], ["|--------", "----"], ["()", ")"], ["infin", "ite"], ["mention", "ed"], ["fundament", "als"], ["modul", "us"], ["prai", "se"], ["pier", "cing"], ["titan", "ic"], ["mumb", "ai"], ["b", "ans"], ["e", "li"], ["e", "ll"], ["g", "z"], ["h", "att"], ["i", "b"], ["j", "ams"], ["k", "jv"], ["w", "ro"], ["de", "t"], ["de", "cre"], ["ti", "b"], ["ro", "les"], ["ro", "cr"], ["di", "col"], ["di", "go"], ["we", "e"], ["pe", "ers"], ["out", "comes"], ["202", "10101"], ["inter", "net"], ["100", "3"], ["la", "kers"], ["tit", "ude"], ["90", "3"], ["19", "70"], ["equ", "ities"], ["proj", "ected"], ["14", "159"], ["man", "hatt"], ["local", "ization"], ["vi", "sed"], ["eff", "ects"], ["win", "s"], ["gra", "vity"], ["pg", "a"], ["hold", "ers"], ["ship", "ment"], ["cho", "o"], ["hy", "dro"], ["motor", "bike"], ["168", "3895"], ["sun", "ny"], ["efficient", "ly"], ["cour", "t"], ["newspaper", "id"], ["staff", "s"], ["experi", "en"], ["tim", "ings"], ["satis", "fied"], ["instru", "ction"], ["corp", "us"], ["mr", "t"], ["autom", "ation"], ["cheap", "est"], ["rout", "ing"], ["cra", "ving"], ["anim", "ation"], ["mole", "cul"], ["getktypefornum", "plate"], ["mun", "ic"], ["16437", "23"], ["introdu", "ction"], ["arab", "ic"], ["facilit", "ate"], ["dicol", "ink"], ["manhatt", "an"], ["1683895", "800"], ["4", "455"], ["5", "432"], ["7", "68"], ["8", "95"], ["b", "ay"], ["c", "f"], ["g", "ap"], ["k", "un"], ["o", "logy"], ["w", "c"], ["w", "ed"], ["x", "v"], ["x", "au"], ["z", "k"], ["re", "arrange"], ["um", "p"], ["is", "ie"], ["ed", "i"], ["ec", "tives"], ["ap", "y"], ["ap", "peti"], ["ter", "rain"], ["sp", "er"], ["com", "press"], ["si", "bility"], ["20", "3"], ["20", "16"], ["iv", "isie"], ["search", "jobs"], ["ho", "listic"], ["so", "gv"], ["ip", "s"], ["ir", "us"], ["min", "d"], ["pre", "process"], ["cre", "am"], ["ph", "u"], ["od", "am"], ["comp", "ens"], ["av", "irus"], ["jo", "e"], ["0000", "000000"], ["bi", "lli"], ["sign", "s"], ["sample", "d"], ["inst", "itu"], ["head", "s"], ["17", "4"], ["33", "333"], ["colle", "ge"], ["ful", "ls"], ["stre", "aks"], ["63", "1"], ["polygon", "s"], ["scal", "ed"], ["see", "ing"], ["000000", "2"], ["cop", "es"], ["parti", "tions"], ["convers", "ations"], ["\")", ":"], ["incre", "ments"], ["39", "3"], ["ered", "ivisie"], ["bed", "room"], ["adv", "ance"], ["suffix", "es"], ["qw", "sogv"], ["horos", "copes"], ["atcg", "atcg"], ["adverti", "ser"], ["classi", "fies"], ["astro", "logical"], ["pine", "apple"], ["asteris", "ks"], ["abbrevi", "ations"], ["coron", "avirus"], ["tutor", "ial"], ["compens", "ation"], ["qwsogv", "tv"], ["\n", "|"], ["0", "25"], ["]", "\")"], ["a", "ac"], ["a", "qi"], ["f", "n"], ["h", "au"], ["k", "x"], ["l", "le"], ["n", "ut"], ["p", "st"], ["p", "to"], ["p", "ap"], ["r", "ar"], ["r", "pa"], ["r", "pg"], ["at", "p"], ["or", "a"], ["str", "act"], ["us", "h"], ["te", "en"], ["li", "on"], ["li", "bra"], ["si", "bly"], ["bo", "livia"], ["ab", "stract"], ["arch", "ite"], ["he", "ard"], ["do", "ge"], ["pr", "on"], ["par", "king"], ["su", "res"], ["em", "er"], ["ph", "ase"], ["match", "details"], ["analy", "ses"], ["11", "4"], ["log", "ged"], ["tal", "k"], ["vo", "y"], ["percent", "ages"], ["enti", "ation"], ["60", "601"], ["22", "6"], ["cap", "abilities"], ["high", "ly"], ["eff", "ect"], ["compare", "d"], ["hash", "ed"], ["spe", "ll"], ["move", "ments"], ["schedul", "er"], ["21", "45"], ["94", "93"], ["59", "1"], ["attr", "s"], ["pornstar", "s"], ["ju", "z"], ["sensor", "s"], ["assign", "s"], ["\n    ", "    "], ["educ", "ational"], ["utili", "zes"], ["subtrac", "tion"], ["aggreg", "ate"], ["compi", "le"], ["atten", "tion"], ["], [", "'.',"], [" '.'", "], ['.',"], ["spel", "led"], ["retwe", "ets"], ["sustain", "ability"], ["elig", "ible"], ["pac", "ific"], ["ox", "ide"], ["quatern", "ion"], ["impression", "s"], ["flor", "ida"], ["imagin", "ary"], ["tib", "ia"], ["molecul", "e"], ["7", "60"], ["7", "28"], ["9", "0002"], ["a", "wards"], ["e", "ing"], ["h", "it"], ["h", "if"], ["h", "im"], ["j", "h"], ["j", "qp"], ["o", "de"], ["r", "t"], ["r", "ussian"], ["v", "ul"], ["x", "d"], ["y", "j"], ["y", "gb"], ["in", "a"], ["er", "ies"], ["st", "ress"], ["re", "arr"], ["ti", "ata"], ["str", "ai"], ["le", "ase"], ["list", "of"], ["res", "et"], ["res", "sive"], ["wi", "ch"], ["com", "b"], ["im", "matric"], ["10", "80"], ["do", "ji"], ["gen", "es"], ["ific", "ations"], ["col", "li"], ["cre", "en"], ["45", "9"], ["30", "5"], ["any", "town"], ["por", "tiata"], ["respon", "sible"], ["lat", "ency"], ["air", "portiata"], ["bi", "kini"], ["extract", "or"], ["ki", "w"], ["ban", "ks"], ["des", "liga"], ["assist", "s"], ["like", "ly"], ["series", "id"], ["rip", "ple"], [" '", ","], ["analyz", "er"], ["display", "s"], ["cam", "ry"], ["capital", "izes"], ["gl", "uten"], ["accur", "ately"], ["perio", "dic"], ["approxim", "ately"], ["consult", "ation"], ["compat", "ible"], ["acces", "sible"], ["qual", "ifying"], ["1122", "33"], ["mph", "w"], ["aven", "ue"], ["certific", "ate"], ["bun", "desliga"], ["imag", "ine"], ["4455", "66"], ["voy", "age"], ["hif", "gw"], ["ygb", "hifgw"], ["strai", "ght"], ["immatric", "ulation"], ["airportiata", "code"], ["2", "11"], ["2", "16"], ["b", "und"], ["d", "h"], ["d", "ag"], ["g", "is"], ["h", "ull"], ["i", "le"], ["k", "t"], ["o", "y"], ["p", "x"], ["s", "d"], ["u", "tion"], ["y", "et"], ["y", "hj"], ["th", "ro"], ["al", "and"], ["re", "fine"], ["ch", "f"], ["fa", "il"], ["inte", "d"], ["pro", "pag"], ["po", "w"], ["po", "um"], ["po", "und"], ["si", "a"], ["bo", "ld"], ["we", "ar"], ["up", "loaded"], ["up", "dating"], ["key", "board"], ["no", "me"], ["no", "vels"], ["do", "ts"], ["sum", "mation"], ["90", "12"], ["pair", "wise"], ["  ", " "], ["14", "15"], ["pat", "ients"], ["mus", "cle"], ["cap", "tions"], ["home", "page"], ["gy", "m"], ["63", "4"], ["28", "3"], ["member", "ship"], ["pet", "store"], ["similar", "ities"], ["vis", "ited"], ["eth", "usd"], ["ol", "dest"], ["smar", "table"], ["sun", "day"], ["ninj", "a"], ["fixt", "ure"], ["registr", "y"], ["agg", "ressive"], ["correct", "ly"], ["dav", "is"], ["veget", "able"], ["consult", "ant"], ["poll", "ution"], ["assum", "ed"], ["bread", "th"], ["transliter", "ate"], ["7788", "99"], ["864", "20"], ["recogn", "ition"], ["abcdefghi", "jklmn"], ["usual", "ly"], ["algorith", "ms"], ["cip", "her"], ["wed", "n"], ["archite", "ct"], ["4", "16"], ["c", "v"], ["f", "ear"], ["h", "air"], ["i", "x"], ["k", "d"], ["l", "m"], ["n", "n"], ["p", "iv"], ["p", "acket"], ["w", "arr"], ["on", "going"], ["al", "d"], ["re", "order"], ["ti", "ming"], ["en", "sures"], ["li", "v"], ["res", "ize"], ["con", "serv"], ["con", "texts"], ["wi", "fi"], ["rom", "ance"], ["com", "modi"], ["ord", "inal"], ["si", "ber"], ["bo", "ts"], ["by", "topic"], ["ear", "ning"], ["cur", "ly"], ["25", "000"], ["inde", "ed"], ["url", "key"], ["ri", "se"], ["bin", "ar"], ["bi", "z"], ["let", "s"], ["car", "ros"], ["19", "9"], ["40", "40"], ["fr", "actions"], ["dec", "ide"], ["pos", "sibly"], ["inst", "a"], ["60", "7"], ["85", "84"], ["98", "6"], ["55", "555"], ["gu", "i"], ["graph", "ics"], ["tor", "onto"], ["gender", "ify"], ["public", "ations"], ["ony", "omi"], ["cn", "n"], ["1234567890", "1234567890"], ["lay", "out"], ["manufact", "ure"], ["pick", "led"], ["feedback", "s"], ["meta", "bo"], ["sever", "e"], ["attach", "ed"], ["lab", "or"], ["invol", "ved"], ["belong", "s"], ["spring", "field"], ["rail", "way"], ["invo", "ices"], ["discus", "sion"], ["standardi", "zed"], ["vio", "l"], ["dedup", "licate"], ["arbitr", "ary"], ["charlidame", "lio"], ["gad", "gets"], ["cin", "em"], ["det", "ach"], ["commodi", "ties"], ["1", "101"], ["2", "14"], ["d", "an"], ["f", "ly"], ["h", "a"], ["o", "v"], ["o", "logical"], ["r", "s"], ["r", "um"], ["r", "ay"], ["r", "up"], ["w", "v"], ["w", "an"], ["al", "t"], ["de", "ar"], ["et", "ers"], ["ls", "nh"], ["ap", "o"], ["ge", "on"], ["sp", "u"], ["ord", "an"], ["si", "tem"], ["bo", "ston"], ["10", "33"], ["so", "on"], ["he", "ights"], ["12", "14"], ["cl", "one"], ["par", "ser"], ["su", "ite"], ["new", "lines"], ["gener", "ic"], ["son", "y"], ["first", "ly"], ["cy", "cles"], ["pre", "ce"], ["15", "8"], ["element", "wise"], ["25", "4"], ["sub", "sequences"], ["dis", "patch"], ["90", "40"], ["follow", "ings"], ["tri", "plet"], ["trans", "lat"], ["19", "3"], ["equ", "ality"], ["emp", "ire"], ["32", "9"], ["75", "000"], ["vi", "bes"], ["bl", "an"], ["70", "7"], ["defin", "e"], [" '", "*"], ["37", "1"], ["28", "1"], ["vari", "ations"], ["94", "611"], ["transform", "er"], ["organ", "ic"], ["whites", "paces"], ["research", "er"], ["campaign", "s"], ["del", "hi"], ["compu", "ted"], ["ug", "kx"], ["summar", "ized"], ["975", "31"], ["jup", "iters"], ["constrain", "t"], ["adverti", "sing"], ["resol", "ve"], ["logarith", "mic"], ["phar", "mac"], ["decre", "asing"], ["choo", "sing"], ["voyage", "l"], ["3", "18"], ["9", "383"], ["e", "at"], ["g", "rap"], ["h", "s"], ["j", "ur"], ["p", "ical"], ["r", "ies"], ["s", "lot"], ["u", "ad"], ["v", "k"], ["v", "ic"], ["w", "p"], ["w", "ing"], ["th", "urs"], ["et", "sy"], ["li", "ber"], ["ec", "uad"], ["it", "ation"], ["fi", "li"], ["con", "tour"], ["me", "ga"], ["get", "people"], ["di", "am"], ["be", "h"], ["bo", "ur"], ["pl", "um"], ["pr", "ide"], ["obj", "ectives"], ["par", "ity"], ["ir", "is"], ["text", "ual"], ["mi", "ami"], ["ph", "y"], ["my", "website"], ["sub", "ur"], ["dis", "cre"], ["ri", "ver"], ["01", "80"], ["bu", "ck"], ["mar", "ca"], ["mm", "ing"], ["gre", "y"], ["over", "sold"], ["13", "8"], ["200", "8"], ["extract", "ing"], ["af", "fili"], ["termin", "al"], ["bit", "mask"], ["local", "ite"], ["55", "66"], ["pal", "ette"], ["work", "shop"], ["win", "ner"], ["const", "ell"], ["tc", "in"], ["tra", "ded"], ["34", "175"], ["schedul", "ing"], ["eth", "ics"], ["host", "ing"], ["condition", "al"], ["green", "wich"], ["adjust", "ment"], ["hor", "izon"], ["800", "0180"], ["exce", "l"], ["pan", "els"], ["dot", "ted"], ["wrap", "per"], ["break", "fast"], ["veget", "ables"], ["har", "mon"], ["har", "ami"], ["utili", "zation"], ["unch", "anged"], ["swi", "mming"], ["6666", "6666"], ["frequent", "ly"], ["speak", "ers"], ["acces", "sibility"], ["tro", "pical"], ["neu", "ro"], ["1122", "334455"], ["astr", "onomy"], ["gray", "scale"], ["brewer", "ies"], ["oth", "ers"], ["lexicograph", "ically"], ["pret", "ty"], ["511", "8000180"], ["neutr", "al"], ["conven", "tion"], ["opqrstu", "vwxyz"], ["geno", "type"], ["3733", "5118000180"], ["wee", "ks"], ["abcdefghijklmn", "opqrstuvwxyz"], ["detach", "ed"], ["9383", "14"], ["34175", "9"], [")", "'"], ["8", "70"], ["9", "90"], ["b", "p"], ["b", "agg"], ["d", "ur"], ["d", "ave"], ["f", "z"], ["g", "zip"], ["g", "pt"], ["m", "bo"], ["m", "bar"], ["s", "ac"], ["s", "api"], ["s", "ings"], ["s", "lic"], ["y", "h"], ["al", "locate"], ["an", "ded"], ["re", "co"], ["en", "ri"], ["ar", "izon"], ["um", "s"], ["le", "mon"], ["op", "s"], ["fa", "ther"], ["fi", "fa"], ["ber", "s"], ["un", "ci"], ["di", "o"], ["pro", "strings"], ["20", "5"], ["we", "ver"], ["ho", "wever"], ["ob", "liter"], ["ret", "ain"], ["pr", "imes"], ["par", "alle"], ["15", "4"], ["sum", "med"], ["sub", "scri"], ["tit", "len"], ["av", "oc"], ["log", "istics"], ["19", "60"], ["clo", "sings"], ["bon", "ds"], ["bon", "jour"], ["prefix", "ed"], ["mean", "ings"], ["iter", "ations"], ["pen", "alty"], ["63", "8"], ["sm", "tp"], ["ony", "ms"], ["exec", "utes"], ["che", "er"], ["land", "mark"], ["scrip", "ts"], ["blockchain", "s"], ["liter", "al"], ["bio", "logy"], ["maintain", "ing"], ["pan", "el"], ["expon", "entiation"], ["snippet", "s"], ["syn", "chron"], ["vid", "a"], ["lex", "ical"], ["furn", "ace"], ["kit", "ten"], ["kit", "chen"], ["liqu", "id"], ["112", "23"], ["ome", "ga"], ["civ", "il"], ["prepar", "ation"], ["indones", "ian"], ["225", "4"], ["brewer", "y"], ["earthqu", "ake"], ["christ", "ie"], ["outdo", "ors"], ["disco", "graphy"], ["mash", "ape"], ["cen", "sor"], ["lag", "os"], ["fulls", "creen"], ["pron", "unci"], ["vul", "ner"], ["wedn", "esday"], ["bagg", "age"], ["mbo", "um"], ["arizon", "a"], ["titlen", "o"], ["3", "00000"], ["9", "30"], ["b", "li"], ["c", "q"], ["c", "af"], ["e", "as"], ["h", "ann"], ["h", "ading"], ["j", "et"], ["j", "ir"], ["l", "j"], ["n", "ice"], ["p", "sy"], ["t", "ons"], ["y", "z"], ["in", "formed"], ["th", "ings"], ["st", "ages"], ["re", "payment"], ["de", "al"], ["de", "bit"], ["en", "a"], ["en", "tion"], ["en", "roll"], ["co", "u"], ["li", "mi"], ["op", "edia"], ["ge", "th"], ["get", "product"], ["get", "qrcode"], ["ke", "o"], ["ex", "pert"], ["fin", "ish"], ["fin", "land"], ["mo", "l"], ["check", "point"], ["sh", "ir"], ["202", "30"], ["inter", "active"], ["country", "codes"], ["identi", "ties"], ["dis", "aster"], ["ann", "er"], ["tri", "angular"], ["cent", "re"], ["ack", "list"], ["ta", "boo"], ["456", "789"], ["456", "42"], ["test", "ed"], ["13", "4"], ["dition", "al"], ["22", "45642"], ["geo", "keo"], ["week", "day"], ["33", "6"], ["70", "2"], ["70", "3"], ["dra", "ft"], ["tra", "ditional"], ["scal", "es"], ["note", "book"], ["repe", "ats"], ["regular", "ization"], ["lay", "ers"], ["incre", "asing"], ["apri", "cot"], ["water", "mark"], ["omet", "ric"], ["demo", "graphic"], ["utili", "ze"], ["wal", "nut"], ["778", "2245642"], ["semi", "colons"], ["death", "s"], ["115", "7782245642"], ["sig", "ma"], ["cut", "ting"], ["convolution", "al"], ["adam", "id"], ["acr", "onym"], ["exhi", "bit"], ["liver", "pool"], ["niger", "ia"], ["saf", "ari"], ["fig", "ure"], ["246810", "1214"], ["sit", "ting"], ["776", "2145"], ["buff", "er"], ["resid", "ue"], ["ubl", "acklist"], ["hills", "hading"], ["override", "s"], ["sper", "page"], ["bund", "le"], ["constell", "ation"], ["sapi", "ens"], ["reco", "very"], ["paralle", "l"], ["1157782245642", "7762145"], [" ", "*"], ["2", "70"], ["9", "101"], ["]", "]"], ["b", "ble"], ["c", "ai"], ["e", "ver"], ["j", "z"], ["k", "v"], ["o", "cr"], ["p", "tions"], ["p", "ending"], ["w", "d"], ["x", "i"], ["x", "box"], ["x", "rp"], ["y", "um"], ["y", "ardi"], ["an", "tic"], ["an", "ony"], ["re", "written"], ["de", "es"], ["es", "p"], ["co", "ol"], ["um", "es"], ["user", "profile"], ["ur", "us"], ["ve", "ga"], ["inte", "xt"], ["con", "f"], ["con", "do"], ["sp", "i"], ["pro", "d"], ["po", "t"], ["ad", "ap"], ["per", "m"], ["so", "lat"], ["cl", "q"], ["format", "ter"], ["ant", "onyms"], ["sh", "ark"], ["inter", "stellar"], ["ser", "ie"], ["pre", "game"], ["mi", "ch"], ["sym", "b"], ["sub", "domain"], ["mar", "i"], ["sho", "e"], ["trans", "mit"], ["perform", "ing"], ["popul", "ated"], ["equ", "ations"], ["ki", "wi"], ["inst", "al"], ["vi", "et"], ["85", "700"], ["ss", "l"], ["info", "graphic"], ["tour", "s"], ["22", "3"], ["70", "70"], ["iter", "ates"], ["44", "3"], ["64", "8"], ["report", "ing"], ["pack", "ed"], ["tor", "rent"], ["descrip", "tive"], ["04", "685"], ["public", "ly"], ["under", "valued"], ["fold", "ers"], ["000000", "01"], ["shot", "map"], ["pagin", "ating"], ["appro", "ach"], ["asy", "nc"], ["resi", "stor"], ["stu", "dies"], ["97", "329"], ["har", "per"], ["align", "ed"], ["imple", "ments"], ["4000", "8865"], ["3456", "78"], ["proble", "ms"], ["autom", "ated"], ["edinet", "code"], ["civ", "ic"], ["atten", "dees"], ["islam", "ic"], [" '.', '.', '.', '.',", " '.', '.', '.',"], ["prematch", "form"], ["astro", "logy"], ["pla", "intext"], ["asse", "mb"], ["oct", "al"], ["204", "85700"], ["upstring", "d"], ["wm", "ts"], ["beybla", "des"], ["conserv", "ation"], ["pronunci", "ation"], ["yardi", "llo"], ["04685", "69"], ["40008865", "97329"], ["\n", "-"], [" ", "="], [" ", "}"], ["2", "17"], ["3", "88"], ["7", "334"], ["b", "v"], ["c", "as"], ["c", "raw"], ["d", "ji"], ["h", "an"], ["h", "ans"], ["m", "ly"], ["p", "es"], ["r", "ick"], ["u", "ck"], ["w", "agon"], ["th", "reads"], ["re", "ply"], ["de", "x"], ["ar", "o"], ["str", "y"], ["us", "r"], ["for", "ces"], ["ro", "ls"], ["tr", "ust"], ["ap", "art"], ["as", "i"], ["wi", "lli"], ["get", "products"], ["be", "ver"], ["mo", "id"], ["coun", "ties"], ["ho", "und"], ["ho", "sted"], ["up", "grade"], ["no", "aa"], ["ag", "ath"], ["do", "or"], ["gen", "ius"], ["par", "abo"], ["new", "ton"], ["cont", "rols"], ["son", "net"], ["char", "mand"], ["tw", "its"], ["mi", "l"], ["ans", "as"], ["bu", "ena"], ["met", "e"], ["news", "letter"], ["mar", "vel"], ["cor", "relation"], ["target", "ed"], ["vo", "cab"], ["scor", "ed"], ["custom", "ization"], ["75", "6"], ["fer", "ti"], ["17", "9"], ["oper", "and"], ["74", "7"], ["medi", "as"], ["download", "er"], ["77", "77"], ["48", "3"], ["eth", "ical"], ["access", "es"], ["found", "ation"], ["cop", "ies"], ["xx", "x"], ["cric", "buzz"], ["fli", "ps"], ["exce", "ptions"], ["incre", "mented"], ["ling", "ual"], ["00000000", "0000000000"], ["hospital", "s"], ["qrcode", "pro"], ["tro", "ub"], ["dam", "age"], ["metro", "poli"], ["govern", "ance"], ["720", "3"], ["sig", "moid"], ["implement", "ation"], ["classi", "fied"], ["establish", "ment"], ["....", "...."], ["765", "611"], ["cabin", "as"], ["ike", "a"], ["thunder", "bolt"], ["munic", "ip"], ["thurs", "day"], ["liber", "ty"], ["yum", "mly"], ["agath", "a"], ["charmand", "er"], ["5", "78"], ["6", "40"], ["]", "+"], ["b", "k"], ["e", "in"], ["f", "hir"], ["h", "et"], ["i", "i"], ["j", "ak"], ["j", "ones"], ["k", "iss"], ["n", "ub"], ["u", "f"], ["u", "u"], ["y", "q"], ["z", "ard"], ["st", "air"], ["st", "ill"], ["at", "ti"], ["at", "ic"], ["re", "call"], ["re", "ported"], ["ul", "ine"], ["li", "ft"], ["fa", "ction"], ["ec", "ard"], ["tr", "akt"], ["un", "set"], ["ent", "ered"], ["ent", "ropy"], ["wi", "zard"], ["pro", "x"], ["ai", "ming"], ["ip", "lookup"], ["he", "ap"], ["ther", "apy"], ["sh", "i"], ["ser", "ts"], ["pre", "ju"], ["specific", "s"], ["max", "age"], ["30", "1"], ["lin", "a"], ["la", "ws"], ["sym", "pto"], ["respon", "d"], ["78", "7"], ["mar", "ia"], ["off", "line"], ["book", "name"], ["scor", "ecard"], ["19", "80"], ["initial", "izes"], ["18", "6"], ["ki", "lls"], ["king", "side"], ["sal", "ad"], ["el", "highlights"], ["80", "7"], ["ian", "o"], ["head", "line"], ["gr", "ant"], ["nor", "thing"], ["defin", "ing"], ["sa", "a"], ["23", "8"], ["iter", "able"], ["gu", "ess"], ["stre", "ak"], ["37", "7"], ["dialog", "ue"], ["track", "ed"], ["right", "most"], ["hy", "th"], ["chi", "ll"], ["design", "s"], ["expir", "ing"], ["super", "hero"], ["resh", "ape"], ["east", "ing"], ["57", "33"], ["ko", "hl"], [" \".\", \".\",", " \".\","], ["bug", "atti"], ["simpli", "fy"], ["belong", "ing"], ["install", "ation"], ["kore", "a"], ["cyber", "security"], ["brid", "ge"], ["clin", "ic"], ["thousand", "s"], ["deci", "bel"], ["shar", "ing"], ["slo", "ts"], ["prag", "ma"], ["emer", "gency"], ["translat", "or"], ["pharmac", "y"], ["subur", "bs"], ["spi", "kes"], ["preju", "dice"], ["sympto", "ms"], ["2", "90"], ["7", "12"], ["9", "78"], ["9", "11"], ["9", "000"], ["9", "80"], ["`", ","], ["g", "un"], ["g", "ian"], ["l", "tc"], ["n", "ano"], ["o", "livia"], ["r", "are"], ["s", "index"], ["v", "z"], ["y", "omi"], ["z", "b"], ["the", "ast"], ["on", "d"], ["al", "titude"], ["or", "bit"], ["re", "act"], ["en", "rg"], ["ar", "n"], ["co", "lo"], ["se", "y"], ["ec", "z"], ["lo", "d"], ["as", "g"], ["as", "oy"], ["ac", "id"], ["ac", "ids"], ["wi", "rel"], ["ne", "ver"], ["get", "ecz"], ["di", "ana"], ["ab", "ab"], ["mo", "graphy"], ["up", "on"], ["ig", "an"], ["par", "sing"], ["fil", "mography"], ["pres", "et"], ["pres", "idential"], ["sh", "ire"], ["start", "up"], ["au", "stin"], ["function", "ality"], ["stat", "ue"], ["und", "ant"], ["90", "90"], ["16", "9"], ["off", "ense"], ["zip", "codes"], ["line", "up"], ["popul", "ations"], ["cat", "ch"], ["rel", "ations"], ["amp", "lit"], ["24", "3"], ["85", "66"], ["vol", "umes"], ["sk", "y"], ["44", "444"], ["stream", "line"], ["hy", "brid"], ["refer", "ences"], ["deriv", "atives"], ["clean", "ing"], ["purchase", "d"], ["fast", "est"], ["mid", "point"], ["458", "986"], ["mad", "rid"], ["leader", "boards"], ["epoch", "s"], ["explor", "ing"], ["middle", "game"], ["inspec", "t"], ["chron", "ological"], ["11111111", "11111111"], ["bear", "er"], ["401", "458986"], ["breach", "es"], ["kb", "ps"], ["candid", "ate"], ["astronom", "ical"], ["numero", "logy"], ["1643723", "400"], ["kun", "yomi"], ["limi", "te"], ["cai", "ro"], ["mich", "igan"], ["instal", "led"], ["wirel", "ess"], ["amplit", "ude"], ["3", "40"], ["3", "173"], ["6", "99"], ["8", "26"], ["a", "ki"], ["e", "inste"], ["f", "q"], ["f", "ra"], ["j", "pt"], ["j", "ka"], ["r", "r"], ["r", "al"], ["r", "na"], ["s", "j"], ["s", "ate"], ["t", "mp"], ["v", "g"], ["v", "maze"], ["x", "n"], ["z", "u"], ["}", "\","], ["al", "arm"], ["at", "l"], ["an", "ci"], ["re", "p"], ["to", "s"], ["en", "joy"], ["li", "es"], ["se", "man"], ["fa", "q"], ["ay", "a"], ["qu", "ite"], ["ne", "st"], ["nam", "ing"], ["get", "past"], ["com", "posite"], ["po", "or"], ["arr", "y"], ["bo", "ot"], ["bo", "eing"], ["ma", "kers"], ["per", "centi"], ["im", "medi"], ["pr", "inted"], ["min", "e"], ["sh", "all"], ["hi", "ll"], ["ser", "ve"], ["pre", "vent"], ["pre", "cise"], ["la", "u"], ["reg", "ard"], ["item", "id"], ["78", "4"], ["index", "ing"], ["log", "ic"], ["tok", "opedia"], ["off", "end"], ["over", "flow"], ["separ", "ating"], ["13", "57"], ["company", "name"], ["auto", "suggest"], ["game", "id"], ["like", "li"], ["tour", "ism"], ["cu", "ow"], ["score", "board"], ["--", "-"], ["64", "7"], ["03", "70"], ["tra", "it"], ["77", "777"], ["ris", "ing"], ["ris", "ks"], ["lli", "te"], ["48", "36"], ["sen", "ior"], ["gin", "i"], ["train", "ed"], ["security", "id"], ["che", "val"], ["rece", "i"], ["38", "4836"], ["bor", "row"], ["chapter", "id"], ["conversion", "s"], ["ins", "ider"], ["pick", "up"], ["sou", "p"], [" [", "],"], ["minecraft", "version"], ["detect", "or"], ["navig", "ate"], ["pp", "ed"], ["sli", "ces"], ["sus", "hi"], ["carbon", "footprint"], ["3456", "7"], ["altern", "ating"], ["185", "27"], ["circu", "its"], ["smo", "oth"], ["decis", "ions"], ["wave", "length"], ["swe", "den"], ["|--------", "--------"], ["abn", "b"], ["earthqu", "akes"], ["substitu", "tion"], ["stoch", "astic"], ["politici", "ans"], ["technic", "ian"], ["spect", "ation"], ["glob", "ally"], ["substit", "ute"], ["institu", "tional"], ["tutorial", "s"], [" '.'], ['.',", " '.', '.', '.', '.', '.', '.', '.',"], ["colli", "sion"], ["buck", "ets"], ["perm", "ute"], ["einste", "in"], ["jpt", "d"], ["sate", "llite"], ["getpast", "events"], ["immedi", "ately"], ["5", "99"], ["8", "15"], ["8", "78"], ["a", "des"], ["d", "fe"], ["e", "ase"], ["e", "den"], ["h", "ls"], ["i", "q"], ["n", "k"], ["n", "ce"], ["n", "il"], ["u", "xx"], ["v", "acc"], ["y", "m"], ["in", "form"], ["in", "boxes"], ["al", "ask"], ["to", "c"], ["us", "ages"], ["ro", "ses"], ["fa", "res"], ["un", "directed"], ["list", "by"], ["get", "listby"], ["ai", "red"], ["can", "cel"], ["key", "points"], ["ag", "ree"], ["sc", "ar"], ["ser", "p"], ["ev", "a"], ["sub", "reddit"], ["que", "bec"], ["stock", "price"], ["late", "x"], ["post", "ing"], ["ww", "zq"], ["over", "bought"], ["py", "ram"], ["ast", "e"], ["ban", "jir"], ["token", "izes"], ["60", "6"], ["bat", "man"], ["70", "9"], ["colle", "cts"], ["ful", "fill"], ["pi", "lot"], ["iter", "ator"], ["35", "9"], ["build", "er"], ["shor", "ter"], ["commun", "es"], ["download", "minecraft"], ["rou", "ter"], ["vis", "ion"], ["foo", "die"], [" \"", "$"], ["earn", "ed"], ["trim", "med"], ["mail", "check"], ["capital", "izing"], ["question", "nai"], ["smart", "phones"], ["lead", "ers"], ["proces", "sor"], ["her", "ma"], ["bra", "ve"], ["optimi", "zed"], ["exclude", "d"], ["scan", "ned"], ["feder", "ation"], ["6666", "6"], ["furn", "ished"], ["bul", "k"], ["increase", "d"], ["practi", "ce"], ["robo", "tics"], ["0000000000000000", "000000000000000000"], ["fm", "t"], ["contribu", "tions"], ["bab", "a"], ["bh", "xg"], ["manip", "ul"], ["compar", "ing"], ["domin", "ican"], ["experien", "cing"], ["doge", "coin"], ["grap", "es"], ["horizon", "tal"], ["avoc", "ado"], ["vulner", "abilities"], ["ferti", "lity"], ["likeli", "hood"], ["uxx", "aj"], ["questionnai", "re"], ["8", "50"], ["9", "1011"], ["c", "ere"], ["d", "all"], ["e", "ul"], ["e", "than"], ["f", "df"], ["f", "clq"], ["k", "ids"], ["l", "mn"], ["m", "use"], ["s", "ag"], ["t", "un"], ["u", "asg"], ["z", "m"], ["in", "i"], ["er", "bottle"], ["at", "mo"], ["re", "pr"], ["en", "em"], ["en", "clo"], ["ul", "f"], ["ul", "ary"], ["str", "aw"], ["co", "ast"], ["le", "on"], ["se", "ats"], ["sp", "her"], ["di", "m"], ["si", "lon"], ["so", "m"], ["time", "zones"], ["obj", "ective"], ["pe", "st"], ["pa", "wn"], ["mi", "ld"], ["bi", "ometric"], ["000", "3"], ["cor", "sen"], ["comm", "ission"], ["web", "m"], ["13", "75"], ["18", "2"], ["custom", "ize"], ["custom", "ized"], ["tick", "ets"], ["el", "se"], ["fal", "ls"], ["work", "flow"], ["95", "32"], ["ep", "silon"], ["35", "14"], ["more", "over"], ["64", "6"], ["rot", "ates"], ["pen", "sion"], ["exten", "sive"], ["hand", "ler"], ["even", "ly"], ["concaten", "ation"], ["exec", "ut"], ["refer", "en"], ["design", "er"], ["cach", "ing"], ["cup", "s"], ["research", "ing"], ["dev", "fclq"], ["proto", "cols"], ["water", "bottle"], ["online", "labels"], ["delet", "es"], ["navig", "ating"], ["own", "ed"], ["occur", "ring"], ["eco", "system"], ["yield", "s"], ["sus", "p"], ["imple", "mented"], ["cigar", "s"], ["summar", "ies"], ["say", "s"], ["compres", "sion"], ["produc", "tivity"], ["conduct", "ing"], ["ben", "e"], ["infin", "ity"], ["outdo", "or"], ["disco", "very"], ["dee", "pest"], ["thre", "at"], ["crui", "se"], ["aab", "bc"], ["sty", "les"], ["collabor", "ation"], ["piv", "ot"], ["metabo", "li"], ["blan", "ches"], ["craw", "ley"], ["vocab", "ulary"], ["prox", "ies"], ["3173", "903"], ["erbottle", "wat"], ["corsen", "abled"], ["1375", "666"], ["devfclq", "fw"], ["4", "9493"], ["7", "75"], ["8", "28"], ["b", "cp"], ["c", "id"], ["d", "ino"], ["g", "eck"], ["h", "mac"], ["i", "lod"], ["j", "ordan"], ["k", "html"], ["m", "api"], ["n", "ur"], ["p", "d"], ["p", "ia"], ["q", "z"], ["u", "tical"], ["u", "vw"], ["y", "u"], ["in", "ations"], ["th", "stone"], ["on", "tar"], ["on", "boarding"], ["st", "ers"], ["an", "is"], ["re", "verb"], ["en", "to"], ["ch", "ips"], ["str", "at"], ["se", "em"], ["se", "ek"], ["am", "ster"], ["ber", "net"], ["ent", "re"], ["con", "v"], ["ay", "er"], ["sp", "ider"], ["get", "search"], ["get", "gender"], ["pro", "ced"], ["po", "tat"], ["be", "ij"], ["si", "p"], ["bo", "w"], ["ex", "port"], ["code", "points"], ["im", "ize"], ["cl", "a"], ["min", "max"], ["sh", "ining"], ["eng", "ines"], ["ra", "structure"], ["ph", "arm"], ["ace", "utical"], ["01", "6"], ["01", "20"], ["top", "views"], ["cent", "ers"], ["red", "line"], ["den", "ver"], ["ot", "ropy"], ["fact", "ory"], ["ta", "urus"], ["last", "ing"], ["radi", "an"], ["05", "1"], ["14", "7"], ["75", "4"], ["fl", "v"], ["termin", "ology"], ["grow", "ing"], ["person", "s"], ["vi", "lle"], ["22", "33"], ["gr", "y"], ["gr", "ad"], ["mes", "h"], ["mes", "si"], ["allow", "able"], ["dra", "ke"], ["pri", "x"], ["iter", "ative"], ["df", "s"], ["07", "963"], ["74", "2"], ["combin", "ing"], ["36", "00"], ["zz", "a"], ["mark", "ed"], ["84", "6"], ["aa", "aa"], ["thir", "ty"], ["inj", "ury"], ["rece", "iving"], ["ku", "bernet"], ["promo", "tions"], ["require", "ment"], ["fav", "our"], ["observ", "ed"], ["pick", "ed"], ["aw", "are"], ["optimi", "zer"], ["rental", "s"], ["execu", "tives"], ["consult", "ing"], ["aggreg", "ates"], ["analyst", "s"], ["hard", "iness"], ["coll", "ap"], ["inf", "rastructure"], ["invol", "ves"], ["hear", "thstone"], ["wai", "fu"], ["gate", "way"], ["heat", "map"], ["pain", "t"], ["pain", "ting"], ["mas", "ks"], ["hun", "gry"], ["descri", "be"], ["kar", "a"], ["ety", "pe"], ["dum", "my"], ["diver", "sity"], ["7778", "05"], ["malay", "sia"], ["\", \"", "$$"], ["earli", "est"], ["appeti", "zer"], ["ecuad", "or"], ["assemb", "ly"], ["percenti", "le"], ["regard", "less"], ["eul", "er"], ["atmo", "sphere"], ["geck", "o"], ["pia", "zza"], ["ontar", "io"], ["anis", "otropy"], ["amster", "dam"], ["getsearch", "results"], ["potat", "o"], ["beij", "ing"], ["pharm", "aceutical"], ["07963", "66"], ["kubernet", "es"], ["'", "?"], ["0", "123456789"], ["8", "16"], ["f", "ro"], ["f", "sa"], ["f", "leet"], ["h", "in"], ["i", "pl"], ["i", "ab"], ["j", "ail"], ["o", "scar"], ["r", "hyth"], ["t", "am"], ["t", "ang"], ["u", "th"], ["v", "age"], ["w", "aste"], ["x", "e"], ["|", "\n|"], ["an", "ai"], ["re", "pair"], ["re", "direct"], ["re", "vised"], ["de", "par"], ["ti", "er"], ["en", "ables"], ["ar", "do"], ["ar", "ia"], ["ar", "rest"], ["ch", "est"], ["tion", "ary"], ["ro", "ok"], ["li", "zer"], ["se", "ls"], ["ur", "b"], ["ber", "g"], ["ger", "a"], ["as", "n"], ["ac", "ade"], ["res", "cal"], ["sp", "l"], ["get", "future"], ["pro", "p"], ["be", "am"], ["ex", "tr"], ["ab", "use"], ["ct", "u"], ["ag", "ore"], ["comp", "ass"], ["25", "64"], ["sub", "region"], ["arti", "fact"], ["11", "6"], ["bin", "d"], ["domain", "name"], ["car", "go"], ["dd", "d"], ["over", "seeing"], ["19", "85"], ["team", "media"], ["initial", "ized"], ["18", "15"], ["sal", "vage"], ["el", "ba"], ["back", "tracks"], ["map", "tile"], ["int", "c"], ["int", "es"], ["pyth", "agore"], ["gh", "anai"], ["88", "2"], ["hex", "agram"], ["stre", "ets"], ["02", "338"], ["ship", "s"], ["sur", "rounded"], ["old", "sort"], ["cro", "sso"], ["piz", "zer"], ["neur", "ons"], ["reser", "vation"], ["pic", "tionary"], ["dr", "iven"], ["sheet", "labels"], [" [", "]}"], ["adj", "ective"], ["black", "list"], ["\n    ", "},"], ["prote", "ct"], ["yyyymmdd", "hhmmss"], ["employ", "ers"], ["click", "s"], ["satis", "faction"], ["ark", "ansas"], [" {", "}"], ["shorten", "er"], ["eps", "g"], ["dial", "code"], ["concer", "ts"], ["hyper", "link"], ["enum", "ber"], ["artw", "ork"], ["rout", "ine"], ["tat", "too"], ["ride", "t"], ["contribu", "intes"], ["vio", "lets"], ["\n   ", "```"], ["edit", "ing"], ["yam", "l"], ["trunc", "ated"], ["coup", "ons"], ["tunis", "ia"], ["dre", "am"], ["encounter", "ed"], ["jud", "ge"], ["pap", "ers"], ["rar", "ity"], ["cinem", "as"], ["geon", "ame"], ["mega", "star"], ["pragma", "vant"], ["orbit", "al"], ["anci", "ent"], ["leon", "ardo"], ["metaboli", "sm"], ["getfuture", "events"], ["pythagore", "an"], ["ghanai", "an"], ["crosso", "ver"], ["pizzer", "ia"], ["\"", "])"], ["2", "80"], ["3", "66"], ["a", "ur"], ["a", "be"], ["a", "ex"], ["b", "ak"], ["c", "tive"], ["c", "ute"], ["d", "umb"], ["e", "val"], ["e", "vide"], ["i", "to"], ["i", "fied"], ["j", "am"], ["k", "n"], ["k", "af"], ["l", "hr"], ["m", "anner"], ["o", "liver"], ["q", "h"], ["r", "ights"], ["x", "qc"], ["in", "corpor"], ["in", "ference"], ["re", "fin"], ["ro", "bert"], ["li", "ves"], ["fa", "ith"], ["is", "ing"], ["ed", "ate"], ["ge", "tim"], ["ac", "ted"], ["me", "chan"], ["sp", "ok"], ["di", "l"], ["com", "plain"], ["ce", "lon"], ["ad", "smi"], ["si", "ght"], ["dat", "ac"], ["ex", "chan"], ["retrie", "ver"], ["mo", "tion"], ["so", "ck"], ["no", "tify"], ["date", "times"], ["pr", "ayer"], ["ain", "fo"], ["out", "li"], ["du", "ck"], ["sor", "a"], ["sy", "ner"], ["202", "206"], ["pre", "gn"], ["contain", "ed"], ["ri", "ot"], ["01", "109"], ["unique", "ly"], ["mm", "si"], ["90", "870"], ["bi", "as"], ["view", "port"], ["separ", "ators"], ["13", "37"], ["pay", "er"], ["des", "serts"], ["br", "u"], ["el", "li"], ["back", "slashes"], ["99", "00"], ["ml", "b"], ["gram", "mat"], ["exp", "anded"], ["meet", "s"], ["70", "4"], ["98", "178"], ["35", "4"], ["44", "6"], ["quo", "ted"], ["92", "6"], ["92", "7"], ["bar", "celon"], ["quarter", "s"], ["program", "s"], ["medi", "ainfo"], ["ext", "end"], ["dou", "ala"], ["photo", "graphy"], ["hy", "poten"], ["direction", "al"], ["79", "90870"], ["war", "s"], ["duplic", "ated"], ["acc", "um"], ["town", "houses"], ["cash", "flow"], ["93", "92"], ["flix", "ster"], ["mid", "i"], ["decor", "ated"], ["wa", "ke"], ["study", "ing"], ["sus", "pic"], ["capture", "d"], ["denti", "fier"], ["sep", "ta"], ["compi", "ler"], ["explor", "er"], ["piec", "es"], ["5555", "5555"], ["437", "9392"], ["pul", "ls"], ["prepare", "d"], ["dial", "ing"], ["civ", "je"], ["890", "12"], ["wom", "an"], ["stoch", "rsi"], ["coup", "on"], ["politici", "an"], ["crip", "t"], ["getlatestby", "securitiescode"], ["grace", "fully"], ["architect", "ure"], ["sitem", "ap"], ["enri", "ch"], ["lift", "ing"], ["238", "7990870"], ["borrow", "ed"], ["fulfill", "ment"], ["spher", "ical"], ["3514", "88"], ["spl", "ash"], ["getim", "age"], ["spok", "en"], ["exchan", "ger"], ["syner", "gy"], ["202206", "25"], ["98178", "34"], ["barcelon", "a"], ["2387990870", "9817834"], [" ", "/"], ["0", "106"], ["5", "500"], ["6", "50"], ["7", "25"], ["8", "0000"], ["]", "},"], ["h", "arry"], ["j", "n"], ["j", "r"], ["j", "av"], ["l", "gb"], ["n", "vid"], ["o", "lat"], ["p", "io"], ["r", "ub"], ["r", "rule"], ["s", "fm"], ["w", "ag"], ["{", "["], ["in", "format"], ["in", "correct"], ["the", "ta"], ["st", "amp"], ["al", "bert"], ["or", "pg"], ["ti", "zation"], ["en", "e"], ["en", "ame"], ["en", "ough"], ["le", "ver"], ["ic", "ate"], ["tr", "ay"], ["un", "available"], ["as", "pen"], ["as", "cript"], ["qu", "ali"], ["rom", "a"], ["get", "communities"], ["com", "pr"], ["ad", "oun"], ["bo", "at"], ["ab", "r"], ["ab", "u"], ["ude", "tails"], ["sh", "adoun"], ["ze", "aland"], ["country", "id"], ["mi", "xy"], ["product", "group"], ["av", "azi"], ["second", "ly"], ["jo", "shu"], ["mar", "ine"], ["app", "ed"], ["mm", "orpg"], ["cr", "k"], ["cr", "im"], ["ot", "ors"], ["scor", "pio"], ["19", "54"], ["200", "01"], ["18", "4"], ["read", "me"], ["dy", "stop"], ["sis", "sip"], ["24", "9"], ["sup", "pose"], ["fl", "ash"], ["bit", "string"], ["99", "1"], ["men", "udetails"], ["times", "pan"], ["know", "ing"], ["35", "22"], ["35", "79"], ["mis", "sissip"], ["gam", "ma"], ["exist", "ent"], ["const", "ants"], ["byte", "array"], ["btc", "usd"], ["dest", "inations"], ["repe", "ti"], ["ced", "ing"], ["94", "105"], ["ah", "a"], ["dou", "b"], ["plann", "ed"], ["refer", "ral"], ["inser", "tion"], ["manufact", "ures"], ["begin", "s"], ["shif", "ted"], ["every", "one"], ["pun", "k"], ["87", "65"], ["nl", "p"], ["pp", "dj"], ["vs", "b"], ["foc", "used"], ["mad", "ani"], ["semi", "colon"], ["enh", "an"], ["mb", "avazi"], ["say", "ing"], ["embed", "ded"], ["asp", "x"], [" '(", "["], ["resol", "ved"], ["refle", "ct"], ["dos", "age"], ["drop", "off"], ["lexicograph", "ical"], ["eno", "ch"], ["caller", "id"], ["manip", "ulation"], ["fre", "ed"], ["thri", "ller"], ["spon", "ge"], ["memo", "ization"], ["cylin", "ders"], ["dag", "bot"], ["manufacture", "d"], ["grey", "hound"], ["aro", "on"], ["willi", "am"], ["fra", "ud"], ["cere", "al"], ["susp", "ect"], ["geoname", "id"], ["exchanger", "ate"], ["0106", "2564"], ["jav", "ascript"], ["nvid", "ia"], ["olat", "o"], ["sfm", "ta"], ["shadoun", "e"], ["joshu", "a"], ["mississip", "pi"], ["ppdj", "wc"], ["mbavazi", "joshua"], [" ", "+"], ["2", "60"], ["3", "256"], ["4", "0000"], ["7", "19"], ["[", "'"], ["a", "co"], ["a", "quar"], ["a", "war"], ["b", "def"], ["c", "geo"], ["d", "one"], ["e", "ight"], ["h", "p"], ["h", "ma"], ["j", "un"], ["k", "ong"], ["l", "mp"], ["m", "gl"], ["p", "w"], ["p", "is"], ["p", "ump"], ["s", "me"], ["s", "ieve"], ["v", "f"], ["y", "b"], ["y", "ach"], ["z", "ger"], ["世", "界"], ["in", "ay"], ["in", "ks"], ["the", "sis"], ["st", "iano"], ["re", "writer"], ["ti", "e"], ["ch", "uck"], ["co", "digo"], ["se", "ko"], ["am", "otors"], ["ur", "a"], ["un", "pack"], ["lo", "os"], ["val", "ley"], ["get", "medium"], ["be", "ef"], ["ab", "bb"], ["he", "ath"], ["loc", "ator"], ["om", "it"], ["tai", "lor"], ["ther", "mal"], ["gener", "ations"], ["pres", "crip"], ["mat", "ter"], ["lang", "s"], ["star", "k"], ["ue", "fa"], ["ra", "ids"], ["rec", "iter"], ["la", "ke"], ["sub", "directory"], ["dis", "joint"], ["item", "sperpage"], ["random", "ized"], ["analy", "se"], ["met", "ar"], ["jo", "j"], ["90", "101"], ["color", "ed"], ["over", "write"], ["40", "3"], ["multi", "line"], ["within", "arace"], ["05", "62"], ["200", "90101"], ["14", "2"], ["14", "26"], ["net", "working"], ["direct", "ly"], ["80", "459"], ["17", "0562"], ["work", "place"], ["66", "4"], ["allow", "ance"], ["tax", "payer"], ["download", "screenshot"], ["mut", "ation"], ["ru", "by"], ["select", "ing"], ["tab", "ular"], ["fit", "zger"], ["expir", "ations"], ["consum", "ers"], ["dr", "inks"], ["cri", "stiano"], ["fed", "ora"], ["south", "west"], ["band", "width"], ["aj", "ith"], ["demo", "graphics"], ["eg", "g"], ["brew", "ing"], ["cele", "bs"], ["road", "map"], ["acces", "sed"], ["hear", "ing"], ["interpol", "ates"], ["ridd", "lie"], ["prep", "end"], ["valistring", "d"], ["tat", "amotors"], ["god", "father"], ["clar", "o"], ["standardi", "ze"], ["mole", "cular"], ["pla", "que"], ["clin", "ical"], ["ceil", "ing"], ["conso", "le"], ["relig", "ion"], ["regul", "atory"], ["729", "369"], ["listof", "all"], ["antic", "ip"], ["getproducts", "ku"], ["parabo", "lic"], ["municip", "ality"], ["seman", "tic"], ["recei", "ver"], ["grammat", "ical"], ["hypoten", "use"], ["3256", "80459"], ["yach", "t"], ["inay", "ear"], ["loos", "ers"], ["getmedium", "question"], ["withinarace", "inayear"], ["1426", "248"], ["fitzger", "ald"], ["325680459", "1426248"], [" ", "},"], ["(", "())"], ["2", "100"], ["4", "45"], ["5", "65"], ["8", "19"], ["9", "50"], ["a", "es"], ["a", "ed"], ["a", "ave"], ["b", "ac"], ["b", "ts"], ["e", "bit"], ["f", "ers"], ["i", "ors"], ["j", "w"], ["j", "sr"], ["j", "cb"], ["k", "al"], ["n", "ine"], ["o", "e"], ["r", "q"], ["r", "z"], ["t", "k"], ["t", "q"], ["t", "ci"], ["in", "appropriate"], ["er", "p"], ["on", "page"], ["st", "ac"], ["al", "mon"], ["an", "ger"], ["ar", "ts"], ["ar", "ial"], ["ul", "fing"], ["ro", "sn"], ["li", "os"], ["ed", "ra"], ["id", "ata"], ["sp", "r"], ["sp", "ike"], ["get", "result"], ["get", "events"], ["di", "um"], ["ce", "o"], ["ke", "vin"], ["if", "e"], ["ex", "c"], ["ab", "baz"], ["search", "topic"], ["we", "ster"], ["ho", "using"], ["ob", "stac"], ["no", "ah"], ["ig", "n"], ["pr", "d"], ["du", "a"], ["fil", "ms"], ["hel", "ps"], ["eng", "ulfing"], ["100", "4"], ["30", "4"], ["mon", "go"], ["reg", "o"], ["ten", "sion"], ["01", "330"], ["lu", "ck"], ["ann", "a"], ["000", "123"], ["16", "25"], ["car", "dio"], ["pass", "age"], ["19", "6"], ["initi", "ates"], ["aver", "se"], ["view", "er"], ["af", "c"], ["local", "authority"], ["sent", "ino"], ["back", "slash"], ["gram", "mar"], ["cap", "com"], ["ca", "iso"], ["ms", "kd"], ["55", "000"], ["tas", "ke"], ["mis", "sed"], ["win", "ners"], ["64", "1"], ["ran", "ks"], ["block", "list"], ["document", "ary"], ["label", "text"], ["prime", "time"], ["under", "standing"], ["fore", "color"], ["gin", "a"], ["94", "37"], ["safe", "ly"], ["zz", "z"], ["pages", "jaunes"], ["may", "be"], ["modi", "fication"], ["flu", "id"], ["84", "30"], ["adjust", "ments"], ["motor", "cycles"], ["sun", "rise"], ["wik", "idata"], ["pj", "page"], ["pj", "location"], ["pj", "keyword"], ["tre", "ated"], ["bed", "s"], ["join", "ing"], ["gradi", "ents"], ["registr", "ations"], ["equival", "ents"], [" (", "'"], ["wrap", "s"], ["cult", "ura"], ["came", "lizer"], ["\n    ", "  "], ["ef", "its"], ["compli", "ant"], ["portfo", "lios"], ["subtrac", "ting"], ["sol", "ves"], ["increment", "ing"], ["mathemat", "ics"], ["medic", "ations"], ["conn", "ector"], ["law", "suit"], ["strip", "e"], ["enum", "er"], ["ben", "efits"], ["fif", "teen"], ["bag", "s"], ["niger", "ian"], ["718", "3"], ["yam", "aha"], ["leg", "acy"], ["technic", "ians"], ["getlatestby", "edinetcode"], ["0580", "91"], ["0580", "9101"], ["jack", "son"], ["wro", "te"], ["pes", "so"], ["carbonfootprint", "from"], [" '.'], ['.', '.', '.', '.', '.', '.', '.', '.',", " '.'], ['.', '.', '.', '.', '.', '.', '.', '.',"], ["pyram", "id"], ["mapi", "lion"], ["collap", "se"], ["evide", "nce"], ["datac", "enter"], ["aquar", "ius"], ["rosn", "edra"], ["abbaz", "ia"], ["wester", "n"], ["01330", "93"], ["2", "149"], ["5", "67890"], ["6", "60"], ["7", "30"], ["8", "45"], ["b", "j"], ["b", "order"], ["c", "lic"], ["d", "color"], ["e", "z"], ["l", "add"], ["p", "ie"], ["r", "j"], ["s", "date"], ["s", "log"], ["t", "in"], ["v", "x"], ["v", "ary"], ["w", "ick"], ["w", "mid"], ["x", "s"], ["y", "pe"], ["}", "]}"], ["in", "fer"], ["on", "o"], ["al", "right"], ["de", "lity"], ["de", "lux"], ["de", "tours"], ["to", "u"], ["te", "in"], ["le", "ak"], ["op", "hy"], ["am", "bi"], ["ed", "u"], ["fi", "delity"], ["number", "ed"], ["valu", "ation"], ["by", "year"], ["pl", "tr"], ["dic", "ular"], ["per", "pen"], ["ex", "cell"], ["search", "query"], ["we", "binar"], ["time", "ly"], ["ice", "land"], ["out", "look"], ["fil", "etype"], ["min", "istr"], ["char", "ged"], ["hi", "j"], ["sc", "am"], ["lang", "id"], ["ci", "ti"], ["ci", "ted"], ["start", "date"], ["por", "tal"], ["comp", "il"], ["bu", "f"], ["index", "future"], ["category", "tournaments"], ["cr", "ing"], ["000", "5"], ["let", "on"], ["16", "483"], ["scor", "ers"], ["group", "ing"], ["13", "1"], ["13", "30"], ["proj", "ec"], ["14", "975"], ["tic", "ut"], ["24", "7"], ["24", "16483"], ["sal", "t"], ["local", "es"], ["back", "color"], ["17", "1"], ["exp", "ire"], ["author", "ized"], ["crypto", "graphic"], ["bat", "tery"], ["high", "ligh"], ["tax", "id"], ["must", "ang"], ["frame", "work"], ["ran", "som"], ["graph", "s"], ["sha", "de"], ["label", "align"], ["zero", "es"], ["pet", "s"], ["48", "641"], ["wr", "t"], ["mac", "ro"], ["lap", "s"], ["subarray", "s"], ["appear", "ance"], ["tran", "script"], ["connec", "ticut"], ["publish", "ers"], ["39", "7"], ["strict", "ly"], ["uti", "lities"], ["font", "stack"], ["lyr", "ic"], ["loy", "alty"], ["ado", "sc"], ["fraction", "al"], ["tele", "phone"], ["wild", "life"], ["qual", "ifications"], ["phi", "li"], ["phi", "los"], ["inver", "ts"], ["smo", "o"], ["bur", "ger"], ["dead", "lines"], ["tz", "name"], ["tur", "b"], ["boost", "s"], ["cyber", "punk"], ["nr", "ds"], ["arc", "tic"], ["1112", "13"], ["getall", "country"], ["gran", "ular"], ["fla", "v"], ["beat", "les"], ["outs", "ide"], ["advance", "ments"], ["thro", "wn"], ["siber", "ia"], ["harmon", "y"], ["slic", "ing"], ["shir", "t"], ["pot", "ter"], ["765611", "98"], ["lau", "gh"], ["aabbc", "c"], ["arrest", "s"], ["outli", "ers"], ["suspic", "ious"], ["dystop", "ian"], ["awar", "ded"], ["abbb", "cc"], ["vary", "ing"], ["delux", "e"], ["perpen", "dicular"], ["excell", "ent"], ["14975", "48641"], ["ransom", "ware"], ["'", ")"], [")", "\")"], [".", "/"], ["3", "00000001"], ["5", "01"], ["7", "10"], ["8", "66"], ["8", "27"], ["a", "que"], ["b", "last"], ["b", "ids"], ["b", "fb"], ["c", "ec"], ["c", "name"], ["d", "z"], ["f", "bc"], ["h", "us"], ["h", "af"], ["k", "at"], ["k", "rip"], ["k", "urs"], ["p", "ush"], ["r", "ho"], ["s", "as"], ["s", "word"], ["v", "ts"], ["w", "av"], ["x", "u"], ["x", "id"], ["z", "x"], ["{", "\""], ["你", "好"], ["in", "ator"], ["al", "located"], ["an", "te"], ["an", "om"], ["re", "ed"], ["re", "ds"], ["re", "names"], ["de", "le"], ["de", "sert"], ["en", "krip"], ["ul", "ette"], ["et", "ra"], ["ro", "ulette"], ["se", "ment"], ["fa", "sc"], ["tr", "in"], ["ge", "mini"], ["un", "splash"], ["lo", "ut"], ["lo", "aves"], ["as", "ser"], ["as", "ked"], ["sp", "x"], ["get", "companies"], ["get", "projects"], ["get", "stats"], ["com", "ic"], ["po", "lish"], ["ce", "a"], ["ad", "her"], ["valu", "ta"], ["bo", "log"], ["ab", "br"], ["ab", "aaa"], ["ho", "lm"], ["no", "thing"], ["ag", "reed"], ["all", "er"], ["end", "game"], ["pe", "an"], ["su", "v"], ["du", "el"], ["sh", "allow"], ["set", "label"], ["count", "ing"], ["ra", "hul"], ["la", "h"], ["la", "del"], ["mon", "ose"], ["my", "secret"], ["au", "ction"], ["sub", "tab"], ["play", "off"], ["stock", "holm"], ["78", "33"], ["ces", "sive"], ["90", "37"], ["late", "ly"], ["red", "shift"], ["den", "se"], ["ot", "ing"], ["gre", "w"], ["car", "ol"], ["lic", "it"], ["request", "er"], ["web", "it"], ["13", "2"], ["13", "15"], ["var", "ian"], ["75", "23"], ["gb", "b"], ["33", "30"], ["nor", "ris"], ["mus", "haf"], ["70", "72"], ["reverse", "geocoding"], ["reverse", "geocode"], ["98", "4"], ["ei", "ro"], ["poly", "line"], ["jan", "eiro"], ["ograph", "y"], ["brand", "id"], ["74", "83"], ["pur", "suit"], ["sur", "rounding"], ["cis", "a"], ["she", "ets"], ["train", "s"], ["hor", "ses"], ["design", "ed"], ["wat", "ches"], ["well", "ness"], ["print", "ing"], ["publish", "er"], ["001", "122"], ["dr", "ag"], ["fast", "ing"], ["mile", "ages"], ["ax", "es"], ["sav", "ing"], [" [", "["], ["110", "8584"], ["syn", "c"], ["ghi", "j"], ["97", "742"], ["ane", "ous"], ["2017", "2018"], ["improve", "ments"], ["meaning", "ful"], ["emo", "j"], ["strip", "s"], ["phi", "a"], ["phi", "ladel"], ["whe", "els"], ["inf", "ection"], ["cogn", "itive"], ["clust", "ers"], ["oh", "ms"], ["lexico", "graphic"], ["bear", "ing"], ["neighbor", "hood"], ["refle", "ction"], ["prior", "iti"], ["sco", "tt"], ["imbue", "ment"], ["avi", "to"], ["exhi", "bi"], ["substitu", "tions"], ["20220", "101"], ["wonder", "ing"], ["bath", "rooms"], ["candid", "ates"], ["gd", "pr"], ["eli", "min"], ["214", "7483"], ["wing", "span"], ["plum", "bers"], ["psy", "cho"], ["anony", "mous"], ["apart", "ment"], ["agree", "ment"], ["dino", "test"], ["\n    },", "\n   "], ["refin", "ing"], ["quali", "fied"], ["seko", "lah"], ["prescrip", "tion"], ["170562", "2400"], ["vts", "ax"], ["fasc", "in"], ["monose", "mous"], ["philadel", "phia"], ["'", ")."], ["2", "95"], ["3", "84"], ["4", "24"], ["4", "65"], ["4", "35"], ["8", "33"], ["c", "data"], ["c", "tivity"], ["d", "m"], ["d", "w"], ["d", "or"], ["d", "tid"], ["e", "per"], ["g", "dp"], ["h", "es"], ["h", "any"], ["k", "au"], ["k", "amp"], ["k", "ata"], ["l", "um"], ["p", "ute"], ["q", "x"], ["r", "ussi"], ["u", "v"], ["y", "v"], ["y", "an"], ["}", ")"], ["in", "table"], ["in", "trad"], ["th", "c"], ["er", "c"], ["the", "med"], ["al", "me"], ["at", "able"], ["at", "ial"], ["re", "v"], ["re", "format"], ["re", "lie"], ["re", "fund"], ["to", "l"], ["co", "sity"], ["ro", "zen"], ["se", "mous"], ["id", "ad"], ["ec", "tiveness"], ["ent", "ina"], ["lo", "ans"], ["con", "go"], ["me", "lon"], ["sp", "ag"], ["sp", "ending"], ["sp", "atial"], ["be", "ast"], ["ie", "ee"], ["bo", "tt"], ["ex", "cited"], ["cul", "in"], ["mo", "ji"], ["he", "lio"], ["up", "strings"], ["do", "ors"], ["pr", "intable"], ["12", "000"], ["time", "delta"], ["par", "cel"], ["char", "set"], ["char", "ades"], ["incl", "usion"], ["cre", "atures"], ["eng", "land"], ["specific", "color"], ["lin", "er"], ["uni", "verse"], ["any", "thing"], ["call", "able"], ["ans", "ion"], ["sub", "categorization"], ["dis", "pute"], ["cr", "y"], ["color", "name"], ["post", "er"], ["fe", "wer"], ["cor", "al"], ["sign", "atures"], ["sing", "ular"], ["request", "ing"], ["ast", "ley"], ["histor", "ic"], ["dec", "ade"], ["var", "s"], ["man", "ual"], ["chan", "ces"], ["stru", "ik"], ["vi", "val"], ["status", "es"], ["like", "e"], ["99", "999"], ["review", "ed"], ["exp", "ansion"], ["tren", "dy"], ["coin", "base"], ["work", "load"], ["mov", "ed"], ["95", "6"], ["eff", "ectiveness"], ["44", "79"], ["position", "al"], ["poly", "semous"], ["part", "ners"], ["arg", "entina"], ["then", "es"], ["tor", "ped"], ["full", "time"], ["uk", "rain"], ["vis", "itor"], ["vis", "cosity"], ["56", "354"], ["fold", "s"], ["resp", "ir"], ["sq", "ft"], ["89", "7070"], ["wat", "ts"], ["develop", "ers"], ["happ", "ens"], ["mang", "averse"], ["hal", "a"], ["assign", "ments"], ["83", "98"], ["sam", "uk"], ["prog", "ression"], ["wide", "ly"], ["suppli", "ers"], ["carr", "y"], ["pul", "sar"], ["android", "tv"], ["9999", "99"], ["hear", "ts"], ["habit", "able"], ["techni", "que"], ["portu", "gal"], ["anim", "ated"], ["descri", "bing"], ["mel", "bour"], ["trigger", "ed"], ["1112", "22"], ["propor", "tion"], ["propor", "tional"], ["fla", "ke"], ["announ", "ce"], ["regul", "ations"], ["hg", "cm"], ["adap", "t"], ["het", "ti"], ["377", "956"], ["colo", "ur"], ["tattoo", "s"], ["pregn", "ancy"], ["01109", "12"], ["freed", "om"], ["pis", "ces"], ["heath", "row"], ["2149", "70"], ["tou", "ch"], ["hij", "ri"], ["emoj", "is"], ["kamp", "ala"], ["russi", "a"], ["intrad", "ay"], ["alme", "ida"], ["rozen", "struik"], ["spag", "hetti"], ["specificcolor", "set"], ["torped", "o"], ["56354", "192"], ["melbour", "ne"], [" ", "```"], ["*", "*"], ["0", "10"], ["0", "100"], ["0", "123"], ["0", "9876"], ["3", "90"], ["3", "80"], ["3", "63"], ["6", "35"], ["8", "40"], [">", "</"], ["[", "]"], ["a", "is"], ["a", "el"], ["c", "age"], ["c", "tiveness"], ["d", "type"], ["f", "mp"], ["g", "ly"], ["j", "im"], ["k", "f"], ["l", "c"], ["o", "ly"], ["r", "iv"], ["s", "and"], ["t", "ts"], ["v", "anity"], ["x", "b"], ["z", "g"], ["z", "v"], ["in", "th"], ["the", "ater"], ["on", "wards"], ["at", "os"], ["at", "uring"], ["or", "n"], ["an", "num"], ["re", "ci"], ["de", "on"], ["ti", "ff"], ["to", "b"], ["to", "po"], ["ar", "ta"], ["ar", "ily"], ["es", "sed"], ["ch", "er"], ["for", "ge"], ["for", "bid"], ["li", "ar"], ["le", "ven"], ["se", "at"], ["is", "y"], ["ed", "itor"], ["ge", "ar"], ["ge", "org"], ["ac", "commod"], ["con", "fli"], ["con", "jun"], ["ter", "a"], ["ter", "ri"], ["get", "users"], ["di", "y"], ["di", "fy"], ["pro", "c"], ["be", "lie"], ["ad", "vers"], ["name", "details"], ["ma", "e"], ["20", "9"], ["20", "77"], ["ab", "ly"], ["ab", "sor"], ["im", "pur"], ["mo", "tos"], ["ho", "le"], ["he", "ls"], ["he", "av"], ["word", "length"], ["fo", "v"], ["fo", "lk"], ["fil", "ls"], ["sh", "tein"], ["hi", "l"], ["inter", "acts"], ["ele", "ven"], ["cre", "ds"], ["address", "details"], ["25", "67890"], ["function", "al"], ["ri", "ll"], ["post", "gre"], ["fe", "aturing"], ["ot", "am"], ["vo", "ir"], ["ta", "deon"], ["separ", "ates"], ["  ", " |"], ["sup", "plies"], ["fl", "and"], ["status", "code"], ["ss", "s"], ["head", "word"], ["int", "ent"], ["datab", "ases"], ["mer", "ger"], ["complete", "ly"], ["way", "points"], ["ful", "ness"], ["tax", "es"], ["abc", "abc"], ["comput", "ation"], ["44", "45"], ["alb", "azi"], ["future", "d"], ["08", "69"], ["games", "list"], ["stream", "er"], ["sl", "ack"], ["48", "174"], ["boun", "cer"], ["56", "7072"], ["fore", "ign"], ["blue", "berry"], ["host", "names"], ["distribu", "ted"], ["station", "code"], ["vir", "go"], ["compo", "unding"], ["cover", "ing"], ["bb", "bb"], ["cook", "ies"], ["26", "2"], ["geocoding", "search"], ["38", "756"], ["ens", "us"], ["aler", "ting"], ["super", "man"], ["ax", "le"], [" [", "\".\","], ["consist", "ency"], ["69", "17"], ["sect", "ors"], ["gall", "ons"], ["own", "ers"], ["bright", "ly"], ["dispos", "ability"], ["ni", "bble"], ["kan", "j"], ["wa", "ze"], ["prote", "ctiveness"], ["62", "98"], ["wal", "king"], ["inten", "ded"], ["lt", "d"], ["festival", "s"], ["enh", "anced"], ["conn", "ects"], ["transpo", "sed"], ["master", "card"], ["reach", "ed"], ["ham", "wi"], ["compres", "sor"], ["104", "85"], ["happen", "ed"], ["snow", "flake"], ["broadcast", "er"], ["bur", "g"], ["appare", "l"], ["gather", "ed"], ["relationship", "s"], ["intersect", "ing"], ["anch", "or"], ["nz", "d"], ["dependen", "cy"], ["334455", "66"], ["vend", "ors"], [" '.'", "],"], ["178", "429"], ["deliver", "ability"], ["acr", "tadeon"], ["aut", "ono"], ["adult", "s"], ["mash", "up"], ["conso", "li"], ["shakespeare", "an"], [" \".\", \".\", \".\", \".\",", " \".\", \".\", \".\","], ["crui", "lla"], ["ctag", "ctag"], ["418", "8"], ["numberof", "words"], ["mind", "fulness"], ["728", "19"], ["warr", "iors"], ["affili", "ates"], ["obliter", "ated"], ["exhibit", "ing"], ["viet", "nam"], ["443", "32"], ["bever", "age"], ["mil", "lim"], ["jak", "arta"], ["878", "1"], ["spider", "man"], ["2233", "44"], ["rhyth", "m"], ["acade", "mic"], ["366", "1"], ["informat", "ive"], ["3579", "1"], ["almon", "d"], ["ambi", "ent"], ["varian", "ts"], ["fascin", "ating"], ["kau", "fland"], ["111222", "333"], ["forbid", "den"], ["leven", "shtein"], ["georg", "ia"], ["conjun", "ction"], ["impur", "ity"], ["0869", "178429"], [" ", "]"], [",", " "], ["0", "35"], ["2", "64"], ["3", "12"], ["3", "19"], ["5", "10"], ["5", "23"], ["a", "abc"], ["d", "urations"], ["e", "commerce"], ["f", "es"], ["i", "u"], ["k", "ish"], ["k", "ol"], ["l", "ord"], ["n", "chron"], ["p", "wa"], ["r", "ach"], ["r", "onal"], ["s", "audi"], ["t", "n"], ["v", "ip"], ["w", "att"], ["w", "kt"], ["}", "."], ["}", "])"], ["こ", "ん"], ["ち", "は"], ["に", "ちは"], ["in", "r"], ["er", "atos"], ["an", "es"], ["re", "construct"], ["ti", "s"], ["to", "x"], ["ar", "sen"], ["ch", "ance"], ["le", "ans"], ["ic", "y"], ["ic", "ious"], ["is", "land"], ["default", "root"], ["ur", "ren"], ["ur", "gency"], ["it", "ac"], ["it", "ual"], ["fi", "b"], ["ap", "pre"], ["un", "ity"], ["un", "tu"], ["un", "expected"], ["lo", "ves"], ["me", "than"], ["qu", "ota"], ["get", "data"], ["get", "platform"], ["ad", "y"], ["ke", "bab"], ["ke", "eper"], ["ab", "undant"], ["retr", "y"], ["ho", "la"], ["ho", "mes"], ["ret", "ention"], ["12", "13"], ["em", "pres"], ["char", "iz"], ["cy", "uuid"], ["inter", "pre"], ["45", "74"], ["max", "results"], ["100", "19"], ["lin", "ux"], ["ci", "a"], ["uni", "fied"], ["ass", "ume"], ["order", "ful"], ["mi", "lest"], ["language", "id"], ["arti", "facts"], ["0000", "01"], ["tri", "angles"], ["bi", "lingual"], ["cor", "rec"], ["vo", "me"], ["boo", "leans"], ["40", "5"], ["40", "8"], ["web", "ull"], ["13", "00"], ["13", "98"], ["tick", "s"], ["ub", "untu"], ["24", "4"], ["af", "fine"], ["mal", "icious"], ["bit", "rate"], ["85", "7"], ["output", "format"], ["ss", "w"], ["player", "id"], ["typ", "ical"], ["dig", "icate"], ["cap", "ita"], ["prob", "s"], ["daily", "news"], ["bal", "ances"], ["oper", "a"], ["mis", "information"], ["mod", "ular"], ["64", "37"], ["hash", "able"], ["77", "9"], ["through", "out"], ["factorial", "s"], ["linear", "ly"], ["vis", "ibility"], ["68", "95"], ["ese", "arch"], ["94", "6"], ["train", "ers"], ["distri", "bute"], ["hy", "po"], ["screen", "ers"], ["excl", "us"], ["glo", "be"], ["76", "7"], ["dep", "ending"], ["parti", "cles"], ["ny", "se"], ["soft", "max"], ["inser", "ting"], ["asy", "nchron"], ["spac", "ing"], ["spac", "ecraft"], ["palindrom", "es"], ["fami", "liar"], ["ju", "ice"], ["resh", "apes"], ["110", "725"], ["wiki", "url"], ["hal", "sey"], ["registered", "domains"], ["condu", "cted"], ["white", "list"], ["priv", "ile"], ["spir", "al"], ["secure", "password"], ["rules", "et"], ["ecar", "dify"], ["eco", "indexes"], ["segment", "ation"], ["electron", "ic"], ["meme", "ados"], ["inspir", "ing"], ["sus", "sex"], ["chess", "board"], ["imdb", "id"], ["redu", "ced"], ["acti", "vome"], ["gir", "aff"], ["inver", "ted"], ["ari", "ate"], ["atten", "ded"], ["bel", "le"], ["hero", "es"], ["robo", "to"], ["newly", "registereddomains"], ["discus", "s"], ["meo", "w"], ["tur", "kish"], ["bey", "ond"], ["profess", "ion"], ["spel", "lout"], ["vh", "m"], ["homo", "gen"], ["wheel", "chair"], ["145", "2254"], ["eb", "ay"], ["asteris", "k"], ["elig", "ibility"], ["saf", "esearch"], ["later", "al"], ["getall", "quotes"], ["spa", "wn"], ["hateoas", "mode"], ["billi", "on"], ["beh", "ind"], ["liquid", "ation"], ["eas", "ily"], ["resistor", "s"], ["alask", "a"], ["getlistby", "securitiescode"], ["referen", "cec"], ["ctu", "ations"], ["complain", "ts"], ["aed", "f"], ["luck", "y"], ["trin", "idad"], ["playoff", "s"], ["belie", "ve"], ["kol", "kata"], ["rach", "ael"], ["ronal", "do"], ["こん", "にちは"], ["eratos", "thenes"], ["urren", "cyuuid"], ["appre", "ci"], ["methan", "e"], ["getplatform", "list"], ["empres", "a"], ["chariz", "ard"], ["digicate", "ch"], ["asynchron", "ous"], ["110725", "991"], ["referencec", "urrencyuuid"], ["#", "$"], ["'", "],"], ["(", "["], ["7", "200"], ["a", "king"], ["b", "ip"], ["b", "ang"], ["c", "fa"], ["c", "im"], ["c", "ents"], ["d", "under"], ["h", "int"], ["h", "aw"], ["i", "sed"], ["k", "xt"], ["k", "ick"], ["k", "da"], ["l", "as"], ["n", "ted"], ["n", "dex"], ["o", "val"], ["q", "fe"], ["r", "ings"], ["r", "pc"], ["r", "rg"], ["s", "sh"], ["s", "ans"], ["t", "bs"], ["u", "ule"], ["x", "h"], ["y", "l"], ["{", "\\\""], ["}", "?"], ["th", "o"], ["or", "es"], ["re", "dis"], ["re", "action"], ["de", "mon"], ["ti", "bility"], ["to", "sc"], ["to", "wards"], ["en", "quir"], ["en", "closing"], ["en", "ix"], ["ul", "tosc"], ["ch", "g"], ["ch", "anging"], ["str", "okes"], ["te", "a"], ["te", "ff"], ["li", "fes"], ["se", "il"], ["fi", "ren"], ["tr", "x"], ["ap", "ed"], ["ap", "hr"], ["un", "necessary"], ["ger", "y"], ["con", "son"], ["val", "ve"], ["with", "draw"], ["sp", "run"], ["ne", "o"], ["com", "ics"], ["ie", "ved"], ["si", "r"], ["name", "prefix"], ["by", "pincode"], ["dic", "k"], ["20", "36"], ["ex", "e"], ["ex", "it"], ["ab", "ling"], ["arch", "ives"], ["im", "proved"], ["mo", "by"], ["ip", "ad"], ["no", "tic"], ["ag", "onal"], ["find", "bypincode"], ["cur", "page"], ["par", "aphr"], ["out", "bound"], ["ach", "ieved"], ["text", "ure"], ["hi", "zb"], ["sc", "d"], ["pre", "ceding"], ["ele", "g"], ["fun", "translations"], ["ph", "on"], ["ph", "ic"], ["comp", "rom"], ["ev", "t"], ["sub", "type"], ["inde", "nted"], ["play", "ground"], ["bet", "s"], ["air", "quality"], ["mar", "ath"], ["mar", "seil"], ["cr", "ane"], ["90", "123"], ["16", "54"], ["book", "marks"], ["pag", "eno"], ["19", "1"], ["19", "59"], ["40", "96"], ["usd", "c"], ["popul", "ate"], ["  ", "|"], ["18", "32"], ["fix", "es"], ["record", "ing"], ["85", "1"], ["85", "38"], ["tour", "sprun"], ["98", "3"], ["cap", "tures"], ["cap", "rio"], ["ca", "use"], ["power", "ed"], ["mean", "time"], ["hex", "agonal"], ["66", "8"], ["66", "47"], ["colle", "ag"], ["95", "975"], ["home", "details"], ["mis", "s"], ["zone", "id"], ["part", "time"], ["block", "ed"], ["07", "65"], ["hash", "ing"], ["album", "adamid"], ["92", "195"], ["02", "7183"], ["63", "70"], ["28", "14"], ["bar", "s"], ["finan", "ces"], ["gon", "na"], ["36", "33"], ["36", "1330"], ["34", "83"], ["prefer", "ably"], ["uuid", "v"], ["09", "7"], ["free", "form"], ["http", "sim"], ["56", "9437"], ["eth", "usdt"], ["68", "2"], ["68", "27"], ["admin", "division"], ["pho", "enix"], ["sw", "apped"], ["ah", "xi"], ["health", "y"], ["hy", "gi"], ["79", "778"], ["venue", "details"], ["refer", "ents"], ["refer", "ring"], ["adjust", "s"], ["style", "ids"], ["250", "6647"], ["ru", "a"], ["cro", "ps"], ["war", "wick"], ["cover", "s"], ["design", "ated"], ["jum", "p"], ["batch", "ing"], ["milli", "sec"], ["86", "92195"], ["lor", "e"], ["suc", "cessive"], ["watch", "ed"], ["ging", "er"], ["predic", "tive"], [" [", "'.',"], ["82", "856"], ["bc", "au"], ["execu", "tive"], ["particip", "ating"], [" (", "-"], ["hr", "b"], ["103", "167"], ["morning", "star"], ["sus", "pension"], ["episode", "no"], ["partition", "ed"], ["capac", "ities"], ["webto", "ons"], ["deprec", "ating"], ["law", "y"], [" ...", "        "], ["overlap", "s"], ["transpo", "ses"], ["pul", "p"], ["moun", "t"], ["ade", "le"], ["interpol", "ated"], ["figh", "ters"], ["mountain", "s"], ["675", "4"], ["asp", "ir"], ["saniti", "zes"], ["saniti", "zed"], ["xxxx", "xxxx"], ["mc", "so"], ["nove", "lla"], ["alternative", "ly"], ["retwe", "eters"], ["clamp", "ed"], ["exceed", "s"], ["sit", "uation"], ["diver", "gence"], [" \".\"], [\".\",", " \".\", \".\", \".\", \".\", \".\", \".\", \".\","], ["schem", "as"], ["813", "95975"], ["getktypefornumplate", "italian"], ["joe", "jv"], ["760", "3483"], ["fail", "ure"], ["liv", "etra"], ["wan", "ted"], ["discre", "ti"], ["930", "8692195"], ["jz", "dv"], ["esp", "n"], ["826", "33"], ["offend", "ers"], ["815", "24"], ["850", "569437"], ["coast", "al"], ["kaf", "ka"], ["dil", "ation"], ["roma", "ji"], ["719", "46"], ["moji", "tok"], ["respir", "atory"], ["terri", "ble"], ["autono", "mous"], ["millim", "eters"], ["cfa", "e"], ["rrg", "gbb"], ["lifes", "pan"], ["firen", "ze"], ["paraphr", "ase"], ["marath", "on"], ["marseil", "le"], ["toursprun", "g"], ["361330", "975"], ["httpsim", "age"], ["hygi", "ene"], ["79778", "3"], ["warwick", "shire"], ["103167", "361330975"], ["livetra", "ffic"], ["0", "45"], ["4", "15"], ["5", "984"], ["6", "74"], ["7", "37"], ["8", "75"], ["8", "00000"], ["9", "23"], [">", "<"], ["b", "afc"], ["c", "de"], ["f", "sm"], ["h", "at"], ["h", "wy"], ["k", "aya"], ["l", "v"], ["l", "al"], ["l", "un"], ["m", "t"], ["n", "b"], ["p", "si"], ["s", "ado"], ["v", "j"], ["v", "ni"], ["y", "ards"], ["z", "ex"], ["z", "nd"], ["in", "ki"], ["er", "ing"], ["the", "or"], ["al", "most"], ["or", "al"], ["re", "ality"], ["re", "ward"], ["de", "dic"], ["de", "cryp"], ["de", "clar"], ["de", "compose"], ["ti", "med"], ["to", "t"], ["en", "abling"], ["ch", "ase"], ["co", "tt"], ["co", "leg"], ["le", "ct"], ["se", "per"], ["se", "yes"], ["is", "n"], ["is", "p"], ["is", "eries"], ["am", "in"], ["am", "ex"], ["ber", "ries"], ["00", "41"], ["00", "8000"], ["con", "tests"], ["get", "channel"], ["get", "website"], ["get", "len"], ["pro", "of"], ["be", "lls"], ["ad", "ab"], ["retr", "ies"], ["we", "ak"], ["mo", "uld"], ["10", "28"], ["ip", "y"], ["find", "ings"], ["cont", "roll"], ["om", "berg"], ["min", "iseries"], ["poin", "ter"], ["ess", "ential"], ["need", "le"], ["202", "7"], ["inter", "view"], ["inter", "pret"], ["inter", "acted"], ["15", "0000"], ["30", "30"], ["lin", "ed"], ["ass", "essed"], ["pa", "stry"], ["mon", "de"], ["25", "44"], ["stock", "seyes"], ["dis", "abled"], ["ten", "ant"], ["mar", "t"], ["ann", "ess"], ["fe", "qk"], ["current", "page"], ["domain", "e"], ["car", "o"], ["19", "8"], ["19", "86"], ["19", "49"], ["recip", "ients"], ["pop", "otam"], ["ded", "ca"], ["14", "85"], ["ki", "low"], ["div", "or"], ["song", "id"], ["80", "8"], ["17", "7"], ["17", "18"], ["review", "ing"], ["down", "payment"], ["mer", "ging"], ["cer", "t"], ["power", "ful"], ["88", "888"], ["88", "416"], ["suggest", "ion"], ["suggest", "queries"], ["iter", "ation"], ["spo", "ts"], [" '", "'"], [" '", "♠"], ["64", "16"], ["bro", "ken"], ["cir", "cles"], ["opti", "fine"], ["hold", "er"], ["simul", "ations"], ["bob", "by"], ["ches", "kaya"], ["certain", "ty"], ["94", "38"], ["chi", "li"], ["distribu", "tions"], ["che", "f"], ["webcam", "id"], ["800", "57"], ["purch", "asing"], ["friend", "ship"], ["success", "fully"], ["dri", "ll"], ["tom", "ba"], ["wall", "paper"], ["optimi", "zes"], ["snap", "shots"], ["lorem", "ipsum"], ["constru", "cted"], ["alig", "ns"], ["collect", "or"], ["detection", "s"], ["rules", "ets"], ["ef", "gh"], ["insensitive", "ly"], ["fall", "ing"], ["sus", "cep"], ["cs", "f"], ["medic", "ine"], ["altern", "ate"], ["skill", "boost"], ["remin", "ders"], ["hard", "ware"], ["je", "ans"], ["pul", "se"], ["visit", "ing"], ["cart", "ons"], ["endi", "anness"], ["blo", "omberg"], ["tru", "ck"], ["901", "1"], ["asp", "ect"], ["getrandom", "password"], ["23456", "7"], ["fif", "ty"], ["discus", "sing"], ["continu", "ity"], ["thou", "gh"], ["discover", "ies"], ["podcast", "s"], ["baby", "names"], ["lux", "ury"], ["401", "88416"], ["christ", "mas"], ["aut", "umn"], ["yt", "jy"], ["fundament", "al"], ["16437", "234"], ["dum", "p"], ["bx", "du"], ["charlidame", "li"], ["630", "40188416"], ["plugin", "s"], ["earli", "er"], ["rej", "ect"], ["hq", "j"], ["packet", "s"], ["caf", "é"], ["conf", "usion"], ["mari", "am"], ["han", "ks"], ["vg", "j"], ["rep", "lic"], ["downloadminecraft", "jar"], ["enem", "y"], ["9532", "63040188416"], ["bene", "fit"], ["mechan", "ics"], ["1954", "2567890"], ["egg", "head"], ["rz", "bxdu"], ["slog", "an"], ["riv", "et"], ["tob", "ago"], ["tera", "box"], ["advers", "arial"], ["hels", "inki"], ["hypo", "thesis"], ["giraff", "e"], ["5984", "780"], ["sado", "vni"], ["znd", "hqj"], ["theor", "em"], ["coleg", "io"], ["1028", "9011"], ["popotam", "us"], ["1485", "953263040188416"], ["80057", "281"], ["suscep", "tibility"], ["sadovni", "cheskaya"], ["\n", "\n"], ["0", "1234567"], ["0", "9037"], ["2", "65"], ["4", "75"], ["5", "82"], ["8", "98"], ["9", "17"], ["9", "76"], ["]", "])"], ["b", "ber"], ["b", "ice"], ["b", "ld"], ["c", "asin"], ["e", "y"], ["e", "me"], ["e", "com"], ["f", "ghij"], ["g", "rom"], ["g", "name"], ["g", "ulf"], ["i", "ther"], ["j", "en"], ["k", "ama"], ["l", "h"], ["m", "k"], ["m", "ir"], ["n", "an"], ["n", "ative"], ["n", "ese"], ["p", "ir"], ["p", "aired"], ["r", "if"], ["s", "ne"], ["s", "ad"], ["s", "ville"], ["v", "lan"], ["x", "fdf"], ["y", "oun"], ["in", "place"], ["in", "door"], ["er", "li"], ["or", "phic"], ["re", "lax"], ["re", "boot"], ["de", "k"], ["ti", "a"], ["ar", "a"], ["ul", "i"], ["ul", "ator"], ["ch", "ass"], ["ch", "ize"], ["str", "ated"], ["te", "les"], ["co", "ld"], ["co", "bal"], ["co", "prime"], ["and", "er"], ["li", "sa"], ["op", "aque"], ["is", "diction"], ["lo", "its"], ["as", "so"], ["ac", "s"], ["00", "123"], ["con", "fir"], ["con", "dos"], ["ne", "ither"], ["get", "details"], ["get", "book"], ["get", "definition"], ["be", "e"], ["be", "comes"], ["ts", "y"], ["si", "mon"], ["20", "30"], ["ex", "pr"], ["fin", "ite"], ["im", "prov"], ["iven", "ess"], ["we", "gian"], ["data", "frames"], ["so", "mes"], ["up", "az"], ["pr", "inter"], ["cur", "ric"], ["12", "234"], ["cl", "ause"], ["em", "i"], ["min", "rounds"], ["sor", "ies"], ["file", "id"], ["45", "09"], ["30", "29"], ["123", "64"], ["mi", "a"], ["ph", "as"], ["25", "0000"], ["dis", "counts"], ["bet", "big"], ["ust", "ic"], ["go", "erli"], ["app", "id"], ["tri", "ples"], ["bi", "bli"], ["fe", "es"], ["cor", "rected"], ["let", "al"], ["16", "12364"], ["sort", "order"], ["ist", "a"], ["ta", "f"], ["19", "25"], ["19", "89"], ["19", "4574"], ["test", "domain"], ["led", "ge"], ["initial", "ly"], ["web", "app"], ["usd", "jpy"], ["18", "99"], ["14", "3"], ["pat", "ent"], ["sta", "ke"], ["vi", "ll"], ["85", "2"], ["fal", "i"], ["map", "style"], ["22", "21"], ["17", "6"], ["exp", "licit"], ["exp", "loits"], ["correspon", "d"], ["class", "ical"], ["nor", "wegian"], ["bat", "t"], ["labe", "led"], ["88", "6"], ["common", "ly"], ["veloc", "ities"], ["35", "1"], ["35", "24"], ["44", "2"], ["build", "ings"], ["mod", "ality"], ["mod", "ulation"], ["quo", "tsy"], ["64", "86"], ["brand", "name"], ["draw", "ings"], ["vin", "lookup"], ["bro", "ker"], ["ash", "a"], ["sha", "ded"], ["download", "movie"], ["foot", "age"], ["ship", "ments"], ["sur", "vival"], ["il", "as"], ["football", "ers"], ["serv", "ing"], ["she", "fali"], ["94", "2221"], ["sw", "it"], ["organ", "ized"], ["brown", "sville"], ["mach", "ining"], ["cn", "c"], ["recur", "ring"], ["flow", "ers"], ["mail", "inator"], ["rotation", "angle"], ["dev", "ine"], ["watch", "ing"], ["tre", "ating"], ["gain", "s"], ["exam", "ine"], ["sou", "theast"], ["authentic", "ated"], ["regist", "ers"], ["soccer", "way"], ["austr", "ia"], ["ref", "urb"], ["agr", "icult"], ["555", "666"], ["ken", "ya"], ["pp", "b"], ["pp", "ines"], ["provin", "ces"], ["great", "ly"], ["wal", "mart"], ["71", "78"], ["mle", "mid"], ["guide", "lines"], ["mr", "r"], ["emo", "tion"], ["redu", "cing"], ["acces", "sories"], ["attach", "ments"], ["confirm", "ation"], ["brea", "ks"], ["hyper", "parameters"], ["aff", "ected"], ["theat", "re"], ["901", "917"], ["robo", "tic"], ["invo", "ic"], ["invo", "ke"], ["mapp", "ings"], ["multipli", "er"], ["webhook", "s"], ["neighbor", "ing"], ["deliver", "ed"], ["frid", "ge"], ["748", "45"], ["chromo", "somes"], ["20220", "901"], ["mel", "chize"], ["blood", "y"], ["bench", "mark"], ["7778", "88"], ["spon", "sor"], ["uniform", "ly"], ["hul", "u"], ["137", "11"], ["bt", "n"], ["innov", "ations"], ["thor", "ough"], ["ske", "letal"], ["\n        ", " {"], ["rearr", "anged"], ["prece", "dence"], ["jur", "isdiction"], ["dur", "ant"], ["landmark", "icon"], ["troub", "les"], ["699", "11"], ["vacc", "ination"], ["muse", "um"], ["execut", "able"], ["nur", "sing"], ["seem", "s"], ["proced", "ures"], ["rescal", "e"], ["dumb", "bells"], ["lgb", "tq"], ["jsr", "f"], ["phili", "ppines"], ["flav", "or"], ["dele", "tion"], ["bolog", "nese"], ["mysecret", "password"], ["97742", "193"], ["gly", "ph"], ["heav", "y"], ["tox", "ic"], ["arsen", "al"], ["exclus", "iveness"], ["comprom", "ised"], ["lawy", "er"], ["aspir", "in"], ["09037", "47"], ["bice", "ps"], ["bld", "gname"], ["casin", "o"], ["ecom", "br"], ["grom", "acs"], ["rif", "le"], ["chass", "is"], ["teles", "cope"], ["cobal", "t"], ["upaz", "ilas"], ["betbig", "a"], ["194574", "942221"], ["melchize", "dek"], ["\n", "}"], ["-", "]+"], ["0", "65"], ["0", "23"], ["3", "500"], ["3", "70"], ["3", "44"], ["3", "249"], ["4", "139"], ["5", "7523"], ["6", "16"], ["7", "01"], ["7", "00000"], ["8", "92"], ["8", "94"], ["8", "76"], ["@", "#$"], ["_", "_"], ["b", "age"], ["b", "one"], ["b", "cd"], ["b", "fs"], ["c", "pi"], ["c", "df"], ["c", "ensus"], ["d", "q"], ["d", "ct"], ["d", "ana"], ["e", "last"], ["f", "p"], ["f", "lex"], ["g", "ay"], ["i", "stor"], ["i", "pos"], ["j", "km"], ["k", "q"], ["l", "w"], ["l", "led"], ["m", "se"], ["m", "ai"], ["m", "db"], ["m", "fs"], ["n", "if"], ["o", "ak"], ["o", "xy"], ["p", "fe"], ["p", "pm"], ["s", "ie"], ["s", "itu"], ["t", "sp"], ["t", "ld"], ["v", "c"], ["v", "od"], ["x", "ag"], ["y", "min"], ["y", "max"], ["z", "an"], ["in", "er"], ["in", "line"], ["al", "o"], ["al", "ab"], ["re", "y"], ["re", "stock"], ["re", "store"], ["de", "fi"], ["to", "ys"], ["ar", "am"], ["ch", "iron"], ["str", "ation"], ["for", "got"], ["co", "don"], ["le", "cim"], ["se", "me"], ["is", "om"], ["am", "ir"], ["ed", "ish"], ["ed", "oe"], ["ur", "ious"], ["it", "ing"], ["it", "tar"], ["fi", "zz"], ["fi", "ats"], ["tr", "ails"], ["un", "supported"], ["un", "defined"], ["lo", "ys"], ["as", "sert"], ["me", "lan"], ["get", "standard"], ["pro", "ps"], ["too", "th"], ["ad", "x"], ["ad", "id"], ["ke", "eps"], ["if", "cx"], ["bo", "s"], ["by", "category"], ["20", "45"], ["ex", "cess"], ["ab", "ets"], ["10", "12"], ["ho", "a"], ["ly", "ing"], ["no", "to"], ["ag", "ana"], ["ag", "na"], ["pr", "ism"], ["12", "6"], ["12", "15"], ["12", "1832"], ["par", "ks"], ["ang", "ry"], ["fo", "cal"], ["fo", "mo"], ["ll", "vm"], ["est", "abe"], ["min", "rating"], ["pres", "sed"], ["mat", "ic"], ["type", "id"], ["cy", "clic"], ["col", "ate"], ["cre", "te"], ["45", "7"], ["45", "127"], ["max", "index"], ["ph", "er"], ["ph", "eno"], ["por", "trait"], ["ical", "scores"], ["match", "managers"], ["sub", "total"], ["play", "book"], ["play", "books"], ["main", "ly"], ["news", "letters"], ["jo", "se"], ["go", "o"], ["11", "10"], ["sho", "ot"], ["trans", "fers"], ["invest", "ig"], ["initi", "ation"], ["team", "last"], ["ks", "wag"], ["13", "96"], ["pay", "roll"], ["18", "06"], ["mor", "gan"], ["14", "42"], ["model", "ing"], ["sal", "mon"], ["inst", "ant"], ["vector", "ized"], ["60", "9"], ["determin", "ant"], ["back", "end"], ["65", "32"], ["oc", "cas"], ["vol", "kswag"], ["differ", "ential"], ["bat", "tle"], ["alph", "abets"], ["cap", "ric"], ["55", "667"], ["know", "ledge"], ["bir", "ds"], ["95", "00000000"], ["ak", "ers"], ["gu", "ids"], [" '", "+"], ["37", "9500000000"], ["jan", "edoe"], ["1000", "100"], ["bas", "aur"], ["dimension", "ality"], ["28", "4"], ["tra", "j"], ["download", "able"], ["ven", "mo"], ["34", "7"], ["just", "ify"], ["da", "x"], ["pet", "rol"], ["sur", "gery"], ["27", "175"], ["mut", "ations"], ["sen", "se"], ["cho", "colate"], ["sw", "edish"], ["pli", "d"], ["wr", "ong"], ["quick", "er"], ["quick", "ly"], ["quick", "sort"], ["organ", "ism"], ["compo", "ses"], ["paren", "ts"], ["appli", "ances"], ["dep", "loys"], ["ground", "breaking"], ["appear", "ances"], ["house", "hold"], ["acc", "ident"], ["milli", "s"], ["instance", "id"], ["lead", "s"], ["sett", "le"], ["hot", "mail"], ["exam", "s"], ["49", "67"], ["favor", "ites"], ["issu", "ance"], ["sim", "ply"], ["every", "thing"], ["optimi", "zing"], ["pun", "ks"], ["pan", "cake"], ["gar", "cia"], ["particip", "ated"], ["458", "68"], ["condu", "ctivity"], ["wrap", "ping"], ["scan", "s"], ["har", "ari"], ["horse", "power"], ["333", "1000100"], ["sol", "ving"], ["mini", "ums"], ["automat", "a"], ["bypass", "es"], ["wel", "fare"], ["bul", "basaur"], ["highlight", "ing"], ["compi", "les"], [" ...", "]"], ["kin", "ds"], ["vw", "x"], ["redu", "ces"], ["ham", "ming"], ["guar", "ante"], ["compres", "ses"], ["civ", "ili"], ["reason", "s"], ["canonical", "ize"], ["whe", "at"], ["vas", "cular"], ["brow", "se"], ["blur", "ring"], ["invol", "ve"], ["tan", "zan"], ["asp", "ects"], ["getrandom", "user"], ["167", "25"], ["constructors", "withinaraceinayear"], ["tur", "key"], ["429", "4967"], ["nutri", "tional"], ["prior", "ities"], ["109", "45127"], ["}}", "."], ["##", "##"], ["dedup", "lic"], ["trunc", "ates"], ["mel", "ting"], ["gad", "get"], ["hir", "agana"], ["announ", "ces"], ["reli", "ability"], ["continuous", "ly"], ["dh", "abi"], ["607", "707"], ["retain", "ed"], ["2254", "3331000100"], ["geth", "istor"], ["getproduct", "bycategory"], ["condo", "miniums"], ["troub", "le"], ["metropoli", "s"], ["shi", "ba"], ["dall", "as"], ["sag", "ittar"], ["straw", "berry"], ["yu", "val"], ["pragmavant", "api"], ["55555555", "55"], ["jn", "j"], ["enhan", "cing"], ["listofall", "constructorswithinaraceinayear"], ["cardio", "vascular"], ["pesso", "as"], ["ministr", "ies"], ["philos", "ophy"], ["pean", "ut"], ["las", "agna"], ["eleg", "ant"], ["declar", "ation"], ["seper", "ator"], ["sne", "akers"], ["curric", "ul"], ["3249", "379500000000"], ["57523", "607707"], ["elast", "ic"], ["oxy", "gen"], ["alab", "ama"], ["aram", "co"], ["lecim", "ento"], ["seme", "ster"], ["isom", "orphic"], ["getstandard", "maptile"], ["121832", "83"], ["estabe", "lecimento"], ["pheno", "type"], ["icalscores", "byyear"], ["volkswag", "en"], ["capric", "orn"], ["27175", "510"], ["tanzan", "ia"], ["gethistor", "icalscoresbyyear"], ["sagittar", "ius"], ["3249379500000000", "3"], ["57523607707", "668"], ["\n", "["], ["0", "98"], ["4", "180"], ["5", "18"], ["5", "29"], ["5", "166"], ["6", "12"], ["6", "92"], ["7", "21"], ["9", "19"], ["9", "60"], ["9", "4040"], ["a", "for"], ["b", "rate"], ["b", "lu"], ["b", "mp"], ["d", "k"], ["d", "as"], ["d", "ma"], ["f", "x"], ["f", "í"], ["h", "en"], ["h", "op"], ["h", "ong"], ["i", "at"], ["i", "jkl"], ["j", "er"], ["k", "ir"], ["l", "ved"], ["n", "ps"], ["p", "se"], ["q", "m"], ["r", "st"], ["v", "et"], ["v", "it"], ["w", "j"], ["w", "ent"], ["w", "ma"], ["x", "min"], ["x", "max"], ["z", "ion"], ["in", "it"], ["in", "die"], ["in", "coming"], ["th", "row"], ["al", "ies"], ["at", "trac"], ["de", "sh"], ["ti", "ger"], ["to", "tient"], ["en", "compass"], ["us", "sels"], ["for", "arace"], ["co", "s"], ["ro", "bin"], ["le", "aves"], ["op", "in"], ["fa", "ult"], ["fa", "mous"], ["am", "ber"], ["am", "events"], ["id", "ers"], ["ur", "ies"], ["un", "usual"], ["ac", "comp"], ["00", "19"], ["00", "73"], ["qu", "ot"], ["with", "name"], ["get", "feed"], ["di", "rec"], ["di", "verse"], ["form", "style"], ["po", "lling"], ["ce", "des"], ["ie", "l"], ["if", "f"], ["bo", "ca"], ["ide", "s"], ["per", "p"], ["ab", "a"], ["ab", "rac"], ["search", "in"], ["im", "ports"], ["data", "forarace"], ["mo", "lina"], ["10", "23"], ["ho", "l"], ["ho", "mete"], ["do", "ta"], ["date", "d"], ["12", "11"], ["speci", "fier"], ["cl", "ave"], ["cl", "amps"], ["par", "a"], ["eck", "er"], ["end", "a"], ["end", "date"], ["end", "constructor"], ["xt", "ure"], ["su", "tra"], ["em", "ention"], ["min", "ing"], ["tw", "ain"], ["cy", "an"], ["ser", "um"], ["pre", "neur"], ["pre", "pares"], ["45", "000"], ["100", "5"], ["mi", "xture"], ["product", "data"], ["sto", "l"], ["25", "33"], ["dis", "ney"], ["av", "ing"], ["01", "1"], ["01", "45"], ["bu", "ds"], ["50", "50"], ["jo", "s"], ["go", "s"], ["og", "s"], ["90", "6"], ["help", "ful"], ["not", "found"], ["bi", "ography"], ["mode", "lid"], ["19", "69"], ["med", "itation"], ["fr", "ies"], ["initial", "ization"], ["event", "lineups"], ["ine", "quality"], ["200", "10101"], ["18", "7"], ["season", "endconstructor"], ["doc", "strings"], ["man", "ages"], ["auto", "clave"], ["75", "001"], ["60", "60"], ["br", "ussels"], ["22", "8"], ["az", "ine"], ["bl", "end"], ["mer", "ch"], ["mer", "cedes"], ["nor", "ate"], ["work", "space"], ["88", "49"], ["23", "1"], ["23", "7"], ["ei", "lish"], [" '", "{}"], ["37", "18"], ["eff", "ector"], ["cost", "ing"], ["ero", "w"], ["league", "homete"], ["special", "ist"], ["92", "191"], ["2020", "1211"], ["sales", "man"], ["tt", "m"], ["run", "time"], ["live", "streams"], ["card", "inal"], ["31", "453"], ["task", "ed"], ["plat", "en"], ["games", "data"], ["rat", "on"], ["scal", "ability"], ["asset", "byid"], ["48", "60"], ["27", "96"], ["boun", "ce"], ["ced", "v"], ["68", "807"], ["airport", "statistics"], ["94", "784"], ["train", "ability"], ["84", "69"], ["deriv", "ed"], ["station", "id"], ["postal", "i"], ["tile", "col"], ["tile", "matrix"], ["best", "buy"], ["piz", "z"], ["26", "94784"], ["tree", "equivalent"], ["38", "2"], ["traver", "sed"], ["ling", "u"], ["national", "ize"], ["observ", "ing"], ["authentic", "ating"], ["resh", "aped"], ["counter", "clockwise"], ["110", "10"], ["issu", "er"], ["expand", "s"], ["bio", "ethics"], ["uti", "ls"], ["emails", "imple"], ["coulom", "b"], ["south", "western"], ["delimit", "ers"], ["mag", "azine"], [" (", "*"], ["restric", "tion"], ["spir", "itual"], ["\n    ", " ```"], ["ws", "gr"], ["consult", "ants"], ["len", "non"], ["subtrac", "ts"], ["778", "5166"], ["'.',", "'"], ["carbon", "sutra"], ["compu", "ters"], ["cand", "y"], ["\n  ", "{"], ["gover", "norate"], ["til", "erow"], ["cs", "in"], ["kit", "ties"], ["btcusdt", "perp"], ["legen", "d"], ["365", "816"], ["carr", "i"], ["coll", "apsed"], ["        ", "    "], ["pit", "ch"], ["890", "123"], ["369", "6827"], ["blo", "b"], ["broadcast", "ing"], ["blur", "s"], ["wave", "lengths"], ["invol", "ving"], ["tan", "ks"], ["subsequent", "ly"], ["cel", "ana"], ["continu", "ed"], ["transi", "tive"], ["transi", "tions"], ["connect", "ing"], ["805", "92191"], ["cra", "f"], ["getktypefornum", "platen"], ["pitstop", "dataforarace"], ["avi", "ation"], ["guid", "ance"], ["rab", "bit"], ["wonder", "ful"], ["bath", "s"], ["neutr", "on"], ["sic", "as"], ["relig", "ious"], ["gran", "de"], ["butter", "fly"], ["cylin", "der"], ["universal", "ly"], ["innov", "ative"], ["numberof", "sentences"], ["getktypefornumplate", "finland"], ["billi", "e"], ["genes", "is"], ["propag", "ation"], ["siber", "ian"], ["9040", "80592191"], ["triplet", "s"], ["discre", "te"], ["1122334455", "66"], ["fz", "c"], ["eas", "ier"], ["metropoli", "tan"], ["stair", "case"], ["entre", "preneur"], ["0120", "338"], ["754", "904080592191"], ["grad", "u"], ["favour", "ite"], ["crim", "inal"], ["omit", "ted"], ["tailor", "ed"], ["anticip", "ate"], ["anom", "alies"], ["asser", "tion"], ["aller", "g"], ["ukrain", "e"], ["absor", "ption"], ["hil", "ton"], ["notic", "ed"], ["dedic", "ated"], ["cott", "on"], ["adab", "ra"], ["confir", "med"], ["bibli", "cal"], ["broker", "age"], ["refurb", "ished"], ["adid", "as"], ["guarante", "ed"], ["529", "226"], ["afor", "emention"], ["blu", "es"], ["fí", "sicas"], ["accomp", "lish"], ["0073", "195"], ["getfeed", "versions"], ["abrac", "adabra"], ["seasonendconstructor", "standing"], ["leaguehomete", "amevents"], ["2796", "754904080592191"], ["68807", "94"], ["bestbuy", "productdata"], ["aforemention", "ed"], ["1", "1001"], ["2", "75"], ["2", "000000"], ["4", "00000"], ["5", "66"], ["6", "18"], ["8", "444"], ["8", "121"], ["9", "124"], [";", "{"], ["a", "us"], ["a", "am"], ["a", "qu"], ["a", "head"], ["b", "lit"], ["c", "to"], ["c", "ation"], ["c", "cd"], ["c", "tid"], ["d", "ining"], ["e", "j"], ["e", "ae"], ["f", "is"], ["f", "pga"], ["g", "ig"], ["h", "ur"], ["i", "ham"], ["j", "k"], ["j", "m"], ["j", "es"], ["n", "ick"], ["n", "languages"], ["o", "a"], ["o", "line"], ["p", "pt"], ["p", "ink"], ["r", "sk"], ["r", "ational"], ["s", "late"], ["s", "quir"], ["t", "une"], ["u", "et"], ["v", "y"], ["v", "ue"], ["w", "edding"], ["x", "path"], ["}", "],"], ["in", "tr"], ["on", "ted"], ["st", "al"], ["st", "ive"], ["al", "ber"], ["at", "ype"], ["re", "ver"], ["re", "stor"], ["re", "lu"], ["re", "vi"], ["re", "volution"], ["re", "bounds"], ["en", "close"], ["en", "rolled"], ["en", "xm"], ["es", "ar"], ["ul", "ted"], ["li", "s"], ["um", "iham"], ["le", "gs"], ["se", "en"], ["op", "sis"], ["fa", "a"], ["fa", "x"], ["fa", "br"], ["fa", "ctid"], ["am", "ing"], ["id", "o"], ["fi", "lling"], ["tr", "on"], ["ge", "om"], ["un", "ame"], ["un", "sorted"], ["ent", "a"], ["as", "ma"], ["as", "king"], ["as", "aki"], ["con", "quer"], ["con", "ia"], ["ay", "s"], ["ay", "umiham"], ["ter", "ra"], ["ter", "rac"], ["qu", "eness"], ["val", "s"], ["sp", "y"], ["sp", "in"], ["sp", "reads"], ["get", "status"], ["get", "weather"], ["get", "download"], ["get", "easy"], ["form", "al"], ["po", "ses"], ["be", "ls"], ["ke", "m"], ["si", "ties"], ["pl", "er"], ["pl", "uses"], ["pl", "umb"], ["pl", "asma"], ["ma", "sters"], ["per", "sist"], ["per", "mit"], ["ex", "hau"], ["code", "conia"], ["im", "ode"], ["data", "store"], ["ho", "llow"], ["ob", "ar"],
[...]
